[PAD]
[UNK]
[CLS]
[SEP]
[MASK]
!
"
#
$
%
&
'
(
)
*
+
,
-
.
/
0
1
2
3
4
5
6
7
8
9
:
;
<
=
>
?
@
[
\
]
^
_
`
a
b
c
d
e
f
g
h
i
j
k
l
m
n
o
p
q
r
s
t
u
v
w
x
y
z
{
|
}
~
¡
¢
£
¥
¦
§
¨
©
«
®
¯
°
±
²
³
´
µ
·
¸
»
½
¿
×
ß
æ
÷
ø
đ
ı
ł
ə
˜
ͼ
α
β
γ
δ
ε
η
θ
ι
κ
λ
μ
ν
ο
π
ρ
ς
σ
τ
υ
φ
χ
ω
а
б
в
г
д
е
ж
з
и
к
л
м
н
о
п
р
с
т
у
ф
х
ц
ч
ш
щ
ъ
ы
ь
э
ю
я
і
һ
ա
ե
ի
խ
հ
ձ
ն
ո
ս
տ
ր
ք
־
׀
׃
א
ב
ג
ד
ה
ו
ז
ח
ט
י
ך
כ
ל
ם
מ
ן
נ
ס
ע
ף
פ
ץ
צ
ק
ר
ש
ת
װ
ײ
׳
״
،
؟
ء
ا
ب
ة
ت
ث
ج
ح
خ
د
ذ
ر
ز
س
ش
ص
ض
ط
ظ
ع
غ
ـ
ف
ق
ك
ل
م
ن
ه
و
ى
ي
٠
پ
چ
ک
گ
ی
आ
इ
क
ग
च
ज
ट
ड
ण
त
द
ध
न
प
ब
भ
म
य
र
ल
व
श
स
ह
ा
ि
ी
ो
ন
ব
া
ি
ে
ા
ର
ರ
ര
ก
ค
ง
ด
ต
น
บ
พ
ม
ย
ร
ล
ว
ส
อ
า
เ
ა
ბ
ე
ი
ლ
მ
ნ
ო
რ
ს
ღ
ძ
ᄀ
ᄂ
ᄃ
ᄅ
ᄆ
ᄇ
ᄉ
ᄋ
ᄌ
ᄎ
ᄐ
ᄑ
ᄒ
ᅡ
ᅢ
ᅥ
ᅦ
ᅧ
ᅩ
ᅪ
ᅭ
ᅮ
ᅳ
ᅵ
ᆨ
ᆫ
ᆯ
ᆷ
ᆸ
ᆺ
ᆻ
ᆼ
ᆽ
ᇂ
ᴰ
ᴴ
‑
–
—
―
‘
’
‚
“
”
„
‟
•
…
′
″
›
‼
‿
⁉
⁰
⁻
₪
€
⃣
™
←
↑
→
↓
↔
↩
⇦
⇨
−
⌚
⏰
⏳
─
┈
█
▓
■
▪
▲
▶
▼
◄
●
◠
☀
☁
★
☆
☋
☎
☔
☕
☝
☠
☹
☺
♀
♂
♡
♥
♦
♪
♫
♬
⚘
⚠
⚡
⚪
⚫
⚽
⛄
⛅
⛔
✂
✅
✈
✊
✋
✌
✍
✏
✔
✖
✡
✨
✿
❄
❌
❓
❔
❕
❗
❣
❤
➖
⠀
⬅
⬇
⭐
、
。
》
「
」
【
】
あ
い
う
え
お
か
き
く
け
こ
さ
し
す
せ
そ
た
っ
て
と
な
に
の
は
ま
み
め
も
や
よ
ら
り
る
れ
わ
を
ん
ア
ィ
イ
ウ
エ
オ
カ
ク
コ
サ
シ
ス
セ
タ
チ
ッ
ツ
テ
ト
ナ
ニ
ハ
ヒ
フ
ヘ
ホ
マ
ム
メ
ュ
ラ
リ
ル
レ
ロ
ン
・
ー
ヽ
ㅤ
一
上
下
不
世
个
中
么
乐
了
争
事
人
以
们
会
体
作
你
來
們
停
全
公
共
出
分
動
博
友
发
和
国
图
在
地
场
城
多
大
天
奖
女
好
娱
婚
子
安
家
實
市
平
年
度
开
彩
心
性
愛
我
战
戦
戰
手
拉
新
方
日
早
时
是
晚
最
月
有
本
来
模
止
殺
民
水
没
法
爭
片
物
特
理
生
用
的
真
神
票
私
系
結
网
美
者
胆
自
虐
行
西
要
話
語
說
讓
让
论
谢
跟
部
里
金
集
靴
韓
高
ﬠ
！
（
）
，
／
：
？
＿
｀
～
･
￣
￼
🆗
🇦
🇧
🇨
🇪
🇬
🇮
🇱
🇳
🇵
🇷
🇸
🇹
🇺
🌈
🌊
🌍
🌙
🌚
🌝
🌞
🌟
🌴
🌵
🌷
🌸
🌹
🌺
🌻
🌼
🌾
🌿
🍀
🍁
🍂
🍃
🍆
🍇
🍉
🍌
🍍
🍎
🍏
🍒
🍓
🍔
🍕
🍖
🍗
🍝
🍞
🍟
🍢
🍦
🍧
🍩
🍪
🍫
🍬
🍭
🍯
🍰
🍴
🍷
🍸
🍹
🍺
🍻
🍾
🎀
🎁
🎂
🎆
🎇
🎈
🎉
🎊
🎋
🎍
🎤
🎥
🎧
🎨
🎬
🎭
🎯
🎵
🎶
🎼
🏀
🏁
🏃
🏄
🏆
🏊
🏡
🏻
🏼
🏽
🏾
🏿
🐄
🐒
🐕
🐚
🐝
🐣
🐧
🐶
🐷
🐻
🐼
🐾
👀
👄
👅
👆
👇
👈
👉
👊
👋
👌
👍
👎
👏
👐
👑
👓
👗
👙
👛
👟
👠
👣
👥
👦
👧
👨
👩
👪
👫
👬
👭
👮
👯
👰
👳
👴
👵
👶
👸
👹
👺
👻
👼
👽
👿
💀
💁
💃
💄
💅
💆
💇
💉
💊
💋
💌
💍
💎
💏
💐
💑
💓
💔
💕
💖
💗
💘
💙
💚
💛
💜
💝
💞
💟
💢
💣
💤
💥
💦
💧
💨
💩
💪
💫
💬
💭
💯
💰
💸
📈
📖
📚
📝
📞
📢
📣
📱
📲
📷
📺
🔃
🔄
🔊
🔕
🔚
🔜
🔝
🔞
🔥
🔪
🔫
🔯
🔴
🔵
🕎
🕯
🖐
🖕
🖖
🖤
😀
😁
😂
😃
😄
😅
😆
😇
😈
😉
😊
😋
😌
😍
😎
😏
😐
😑
😒
😓
😔
😕
😖
😗
😘
😙
😚
😛
😜
😝
😞
😟
😠
😡
😢
😣
😤
😥
😦
😧
😨
😩
😪
😫
😬
😭
😮
😯
😰
😱
😲
😳
😴
😵
😶
😷
😸
😹
😻
😼
😽
😾
😿
🙀
🙁
🙂
🙃
🙄
🙅
🙆
🙇
🙈
🙉
🙊
🙋
🙌
🙍
🙏
🚀
🚗
🚘
🚨
🚫
🚬
🚶
🚿
🛍
🤐
🤒
🤓
🤔
🤕
🤗
🤘
🤡
🤣
🤦
🤷
🦄
🦋
##מ
##פ
##ש
##י
##ל
##ו
##ת
##ם
##ק
##ר
##🍹
##ה
##a
##r
##n
##e
##y
##s
##п
##л
##а
##т
##и
##ь
##t
##z
##v
##ג
##א
##נ
##😃
##צ
##ב
##ח
##ד
##u
##b
##o
##h
##ט
##ץ
##ס
##ע
##´
##ן
##w
##l
##i
##c
##d
##😄
##😍
##💦
##🚿
##x
##д
##н
##о
##г
##ך
##m
##כ
##f
##😆
##🦄
##💰
##👉
##🌹
##🔥
##🦋
##ז
##8
##9
##ч
##😇
##💭
##💑
##👄
##😴
##p
##g
##1
##5
##k
##2
##7
##0
##6
##😣
##😒
##к
##р
##ף
##j
##💪
##🏽
##👊
##🏼
##👌
##😻
##😤
##⚫
##🔴
##™
##😂
##👼
##4
##м
##ы
##🎉
##😱
##😯
##🖕
##⁻
##😿
##у
##в
##с
##ю
##щ
##е
##ͼ
##🎶
##ა
##ი
##✌
##😛
##💗
##💋
##🍓
##😋
##😎
##😏
##ł
##3
##😅
##❤
##ن
##ا
##س
##ه
##♥
##ع
##و
##ت
##🤕
##🚗
##ز
##ر
##ي
##ب
##👍
##💛
##🎥
##☕
##🎈
##👏
##б
##ل
##ش
##🏻
##😩
##✔
##🎼
##🎧
##🎤
##😰
##👯
##💕
##❕
##✋
##😕
##😪
##🔞
##😊
##я
##х
##😫
##😭
##😷
##😌
##م
##ﬠ
##ж
##😞
##ш
##😑
##😓
##😔
##😦
##☹
##🙁
##😟
##😜
##☠
##👀
##ц
##🤒
##😝
##😖
##💏
##✊
##😚
##ق
##×
##🏾
##🔯
##🔫
##🎊
##😁
##🎁
##🎋
##レ
##タ
##ン
##～
##ア
##フ
##💔
##ط
##🍁
##🙌
##💉
##👧
##💜
##ک
##🍯
##د
##ح
##ة
##🙏
##😘
##👗
##👠
##💄
##💸
##👓
##🤗
##✍
##👋
##😡
##😙
##👎
##💃
##☔
##😬
##💀
##👪
##🏃
##🍷
##🍸
##🍺
##😀
##💙
##😥
##χ
##👅
##🎀
##💁
##ᅡ
##ᄋ
##💘
##q
##💎
##れ
##る
##か
##💢
##😳
##🌼
##з
##😢
##💚
##ج
##🙃
##ى
##λ
##α
##ι
##ο
##υ
##ρ
##ك
##🙊
##💓
##❌
##π
##😵
##🍟
##👫
##👈
##☺
##😉
##🍌
##ᆯ
##ᄒ
##ᅩ
##ᄂ
##ᅧ
##ᆫ
##さ
##🙈
##☀
##ф
##ो
##ल
##😼
##🍫
##त
##र
##ा
##き
##よ
##う
##に
##な
##っ
##て
##け
##と
##や
##ん
##✈
##ذ
##💍
##👭
##🏿
##🐶
##⚽
##غ
##ض
##ی
##💝
##🎆
##🏊
##👙
##😽
##©
##💅
##🔚
##һ
##±
##😮
##😈
##🍻
##🇱
##💖
##✅
##🍾
##🌟
##ᄇ
##ᅳ
##も
##の
##😠
##🌵
##💞
##ـ
##❗
##ล
##ง
##บ
##ร
##า
##ค
##ด
##น
##เ
##ย
##🎬
##ν
##τ
##👿
##ف
##🔝
##⭐
##👑
##®
##🎂
##🍉
##💥
##🌊
##🌴
##ナ
##リ
##ス
##ト
##✖
##😨
##ص
##☁
##⛅
##ω
##ホ
##ー
##ル
##テ
##ィ
##ク
##📢
##🙂
##🙅
##🎵
##ন
##ে
##া
##°
##ᆨ
##🙋
##ᅵ
##ᄅ
##ᅮ
##і
##た
##コ
##ラ
##द
##ी
##€
##🎨
##ء
##🤐
##ε
##η
##ς
##ბ
##მ
##ე
##ლ
##💤
##😐
##ø
##æ
##ß
##😲
##💫
##⚘
##👐
##₪
##は
##ײ
##ᄀ
##ᄉ
##ᄐ
##🤔
##い
##ヘ
##お
##り
##👆
##🍎
##🎇
##🇮
##🇷
##❓
##み
##あ
##🙇
##🔊
##し
##ま
##め
##ı
##❔
##ム
##ら
##イ
##💌
##す
##ก
##ม
##🐕
##⃣
##🖐
##🕎
##✡
##←
##μ
##κ
##🎯
##👇
##🌿
##😸
##ث
##👳
##⚡
##ə
##⏰
##💐
##🌞
##☝
##⚪
##🍏
##ウ
##💟
##🤣
##🌝
##🌚
##😹
##カ
##ロ
##を
##👻
##☋
##｀
##¢
##❣
##β
##ᄌ
##ᆼ
##ᅥ
##ᆸ
##🤦
##♀
##🙄
##💇
##こ
##👣
##🙉
##🌻
##σ
##−
##👬
##ハ
##🖤
##🍂
##💣
##🔪
##📖
##🙍
##³
##स
##न
##✨
##🌙
##🍢
##ા
##🇺
##🇸
##🌸
##🌺
##¨
##🌷
##👩
##👸
##🍕
##🍴
##🍝
##😶
##👮
##ュ
##خ
##🍭
##🍒
##ツ
##セ
##シ
##→
##👹
##🐣
##क
##श
##💯
##🙀
##🤡
##¸
##￼
##💊
##ต
##☆
##🚶
##🙆
##😗
##🍦
##🏄
##🤘
##🎭
##💩
##🌈
##😾
##⛄
##🌾
##ظ
##👦
##👨
##🇪
##🇧
##🇵
##🇹
##🇦
##🐒
##🏀
##💬
##♪
##ว
##🎍
##ग
##ᅦ
##❄
##👵
##📞
##👴
##🐻
##🍧
##♂
##ᆷ
##👶
##อ
##♡
##प
##🤷
##🍰
##📲
##せ
##📚
##ヒ
##エ
##👰
##●
##ह
##य
##½
##📺
##ᄎ
##👺
##व
##ण
##φ
##─
##🤓
##δ
##🏆
##🍔
##ッ
##ি
##👥
##わ
##メ
##💆
##✂
##ա
##ն
##ր
##ե
##տ
##ո
##🍩
##ъ
##🍃
##ニ
##😧
##🚘
##म
##🍬
##θ
##ᅢ
##🔵
##ब
##ज
##サ
##え
##ᄃ
##🚫
##🕯
##🍗
##ि
##🍪
##🇳
##ᄆ
##ส
##च
##£
##く
##⏳
##🍞
##ᅭ
##🍖
##💨
##📝
##گ
##🍍
##ձ
##¯
##🆗
##✏
##ო
##რ
##マ
##🚀
##🍀
##ᄑ
##⬅
##э
##⛔
##🍇
##👛
##🏁
##ღ
##ს
##γ
##チ
##🐝
##🔜
##👟
##👽
##ᆻ
##💧
##ნ
##🔕
##🚬
##װ
##★
##🌍
##🔃
##÷
##پ
##🐼
##ძ
##🐾
##ᅪ
##📷
##🇬
##چ
##²
##🐷
##オ
##🖖
##พ
##ट
##⠀
##⚠
##ड
##✿
##↓
##µ
##そ
##🛍
##↔
##भ
##ध
##đ
##♫
##📱
##ヽ
##📣
##ք
##🇨
##⁰
##խ
##🍆
##⌚
##🐄
##ᆺ
##🏡
##ব
##🐚
##▶
##◄
##▪
##⬇
##♬
##☎
##ի
##¥
##ᴴ
##🚨
##ս
##˜
##¦
##▼
##█
##■
##▲
##🔄
##➖
##┈
##ರ
##♦
##🐧
##↑
##ᇂ
##इ
##ᆽ
##ര
##հ
##📈
##٠
##↩
##⇦
##▓
##￣
##⇨
##आ
##◠
##ᴰ
##ㅤ
##ର
##ים
##ות
##ני
##ור
של
##ול
##ית
##יר
את
##וב
##וד
לא
##ון
המ
##לי
##רי
##נו
##בר
##נה
##יה
##ין
לה
##יל
##יו
##וא
על
##תי
##שר
##ומ
##בי
##די
הא
##מו
##רו
##יי
מה
##ום
##ופ
##שי
##מה
##שה
##נים
##וק
זה
##כל
##יד
במ
בא
##לה
אי
##רא
הש
הי
הח
שה
##וע
##יות
##וס
##נות
##בל
אח
או
##יק
וה
למ
##פר
הת
הע
##זה
כל
בע
##וח
לי
##אל
אני
##וצ
מח
##וג
עם
##לא
##טי
מש
הוא
##וש
מא
##יע
##דר
שא
##טר
יש
מת
מס
וא
##וו
##בה
##נת
##מי
אות
מע
##רים
לע
הר
בש
##מת
הפ
##יים
הק
לפ
הס
הב
##שים
שמ
מי
הכ
הג
##צי
שי
כי
##בע
בת
##נס
אל
בה
##רת
##מש
##חח
בי
גם
לש
##רכ
לב
##וכ
##קר
בח
הה
##בת
ומ
##רג
לח
##את
##פה
##וי
##מים
##שראל
##בים
##וט
##מן
##שת
##רח
##דים
##ותר
##יום
##כול
מק
אם
##סי
##כה
מצ
הצ
##עת
##נית
##ורה
##רה
##שות
היה
##עות
היא
אבל
##פי
##דה
##חת
הנ
אנ
##עה
אמ
ול
##וז
##לים
##בות
##חר
מפ
##חה
##וף
יותר
##כם
לק
מב
וב
##אי
הד
##בוד
##ולם
##ונ
שלי
רק
מכ
טוב
וע
##ירות
##אה
##פת
##ירה
בר
##ונה
##יש
הז
בס
שב
##לק
בין
##בור
##כת
בג
אין
בפ
ישראל
##מות
##יא
רא
בב
כא
אפ
ממ
##ניה
##גד
##וה
##יפ
כמו
##יתי
##יס
לת
##יצ
##וני
20
המש
##קה
##אות
אז
##נט
מחיר
##חות
יה
עד
##לת
##חד
בק
##קים
##ולי
מג
##ראש
פר
פע
##אים
##לו
אחד
##לב
##דם
##טה
##עים
##מצ
##ילה
עצ
מד
בכ
שע
שנ
לג
##ולה
##אר
##כו
יכול
##ורים
עלי
לו
##ברים
##טים
הם
##חק
##כן
שלא
##רות
מחירון
##ינ
בכל
##כות
אתה
##וך
להת
לד
עוד
כך
לך
##ונים
##כים
כבר
##מר
##לות
##יתה
ולא
חש
חד
##טוב
##מוד
##שהו
הזה
##er
##רב
##כש
בית
היום
##פק
לצ
##ומר
##יעה
##ראה
##דרך
##ריך
##ילו
חבר
בד
##לח
לס
נת
מז
בט
##פט
##דת
וש
##יב
##עי
##צה
לפני
##ובים
##פים
##on
##חחחח
##תה
לכ
כש
ראש
אותו
##וצה
##סק
##ודה
כמה
כדי
##דות
##לט
להיות
##רך
##מיד
##סט
אלי
##נג
##ינו
שק
##ווה
##in
##נק
תק
איך
##פות
##ורי
בו
וח
אחרי
בני
##חים
##כי
##צל
##ורת
##סת
היו
יום
##00
##גע
קר
##חנו
19
זו
##גר
ות
##ירים
##פו
סי
##ובה
שלו
שאני
הט
נס
##ra
##זור
##רט
##ולים
##חי
##el
##כון
##פור
##כשיו
בצ
##גי
הכל
כן
וכ
ממש
גד
שלה
שני
##ברה
למה
##שו
בדרך
הכי
יוד
מר
חי
##מד
שם
##יותר
מדי
יצ
שהוא
הראש
נגד
##לל
##קום
אה
נש
די
##צוע
##או
שת
אב
##חש
##וץ
פי
וג
איזה
ידי
בן
##בודה
##מע
##לול
##סה
##ברי
בלי
##נד
##ילים
##ווי
##רץ
אבי
##כר
##😂😂
##חס
201
יע
נפ
אפשר
##וקר
##ניות
יל
##יקה
##תר
שיש
זאת
לנו
##an
אותי
##קות
##ער
##צת
מט
##or
עכשיו
לכל
אנשים
שלך
הבי
##וגל
##לך
##ניין
##en
##מא
##ופה
##פס
##גל
##es
##ניים
##הה
מאוד
##בו
לאחר
נע
מרח
##גה
תש
צריך
כת
בל
שר
אשר
##בד
אוה
##חו
##ובר
נוס
בבית
קט
לר
##ירת
##ואה
יד
##ar
אך
רוצה
בז
דבר
##בוע
##מין
##ורות
פעם
ביותר
הרבה
##רכז
##צר
##תיים
##צע
##חל
##ומי
להג
שכ
##פשר
##קי
אדם
##לם
##תם
##זר
אר
אנחנו
##al
##שוט
##ורך
השי
##ילומ
##וות
10
נית
אוטוב
בנו
##פל
אוטובוס
הפר
כול
אחת
המח
##ומה
##בא
חיי
המת
גוגל
##סים
##at
ונ
##עם
##טח
שנה
תח
##מונה
##כנ
##קש
##ילות
מסלול
##צים
##קת
נסיעה
הל
נה
ולה
דרך
כב
##אלי
עו
##ידה
לעשות
##ילומטר
עדי
עוב
אותך
אחר
##פון
##מל
קילומטר
אלא
מפות
##סף
המק
##של
תה
##צב
מרחק
הול
שח
צי
חלק
יהיה
להם
לנ
##טת
תע
##קרה
##כנס
מל
##מית
ספר
##ופן
ישובים
שנים
גב
למע
שלנו
##ונות
מספר
תל
##קס
אותה
##ודי
מוצ
##קט
##ריה
אף
##גים
##וכל
הלי
לכם
בפני
##בח
##ציה
וי
האח
פשוט
אתם
##ראות
##עד
משהו
##ירי
##יוחד
##ביל
##וחות
##חיל
חוש
המע
##שא
מנ
שזה
##ביר
##טרה
##צות
##מור
חיים
##רכת
##קד
##דינה
##מוש
אביב
אש
##דור
##it
אית
חז
is
המס
החל
אור
לל
וגם
איר
##et
אד
ור
##תת
אמר
##אן
##is
##דש
##ליון
זמן
אינ
גר
##os
תמיד
משפ
ללא
איש
מלא
אותם
נק
gt
##מון
במה
##ליה
##ומים
במש
##דו
הנו
אס
בנ
##יקר
ניתן
th
כאן
לפי
קור
##ייס
האם
##צח
באמת
פת
נראה
##ניהו
שש
הרי
האי
הוד
##קל
הגד
in
נא
##טל
##ולוג
פה
##ולות
צרי
ברי
ני
ית
אומ
##קב
רב
תודה
##ודים
##פע
##ירוש
אולי
##רום
##פרי
##זו
##ומות
12
אלה
##סטי
המשפט
בעולם
פל
מוס
##גת
##בק
##טו
##גות
##וריה
##רונות
##גש
יח
##rael
הייתי
11
##ואי
##ובות
##מרי
ועוד
כאשר
יא
בישראל
##שרד
##כב
במקום
חוק
השופ
הצי
##ing
##ou
במס
יפה
קשה
נכון
##גיע
##טע
##בתי
הייתה
כנ
כשה
##רוש
תא
אנו
מול
##ידע
200
יודע
##קו
באופן
עבור
##נתי
מוש
##ושים
לז
רע
עדיין
יוצ
##מח
רח
##ומת
##נשים
המא
אופ
##עתי
##ed
שאתה
ואני
##שם
israel
קצת
שוב
##ic
to
נתניהו
שלהם
##לום
חדש
התק
הרו
מבי
##לית
שהם
הרב
שג
אומר
היל
אג
בתי
##ובי
כזה
חס
לראות
שהיא
וק
##רוץ
##ברת
ביום
מתי
##ילת
אצל
##ואר
מוכ
התי
העולם
היי
##il
עושה
וזה
באמצ
סט
כה
##ועל
בתח
st
##משלה
##פש
רג
דברים
##ודש
רצ
להע
##as
בגלל
##יהם
כמ
##יוק
מרג
מנה
##זי
##om
קי
הספר
מקום
##יני
נח
##עו
##בודות
##וסי
משת
שבוע
ככה
הראשון
פרס
##פיק
בכלל
פרו
##נטי
##פול
גדול
##םם
##מעות
וס
הזמן
##וצים
##ברית
תר
##יח
מוז
15
טיפ
החיים
ער
##ודות
בהת
פרי
##ובן
##מם
בלב
##ריות
##ופי
תת
מתח
##מס
שיר
##גן
שהת
##שיך
##iv
ואת
בשביל
השני
##כיר
##נון
##נסת
דו
מחר
נמצ
##מפ
שבת
רבים
למי
הבית
עבודה
הן
##טית
ופ
##אם
בשי
אפילו
מישהו
חשוב
הור
לעצ
קל
##פרס
המדינה
לקבל
##ותו
גור
כולם
##גו
##חז
ואז
##בית
שירות
מכל
חחחחח
עש
נד
גל
חל
לבית
the
ביק
ילדים
##יך
משפט
מור
##ובע
מוע
עליו
##מק
##שרה
הקר
לבי
הופ
ארו
שפ
ומת
מן
גבוה
בדי
##פקיד
למש
##צו
בדיוק
##נוי
בקר
##בוק
18
שלום
שלכם
##גוע
חברת
שאין
עליה
##ליט
שבע
שתי
##מנו
פחות
ליי
##ראי
חדשות
קב
##am
שיע
##re
החברה
העיר
##בט
והוא
במע
##וסט
מוד
טובה
במו
מתק
ההת
##יפור
##וקה
##נא
##ליך
##מנים
הגיע
נג
בסי
פור
##רגע
##שיא
##מול
##גרת
יכולה
אלו
##ופר
##שראלי
לקר
באי
הממשלה
בשנת
חומ
##ולד
##זק
ספ
##וטר
ראשון
והת
סרט
קרי
סוף
למצ
##ירושלים
##ביא
##מך
##נם
ווא
##נוע
טר
סוג
##מתי
##טוח
במח
הסי
##ch
תג
לפע
הנה
מאז
##אלה
##ot
לט
##ליים
מקצוע
מזה
##שון
##דרה
התע
מסת
##בין
##מעט
ברו
##וקים
במק
מיי
##יוון
שעות
תוכ
##צא
הזאת
##ופש
בוקר
כולל
##שימה
כר
בהם
האלה
היתה
##שוב
לשי
בעצ
##שק
התח
##רד
##בעת
##נסה
שמע
##מוך
##מט
##נן
הני
ומש
##ion
14
מגיע
##תו
בארץ
הארץ
ברח
שהיה
כד
גי
במהלך
פני
##גור
ומה
רוב
אחרים
##ol
וד
##קע
##בון
עצמו
##מונות
##רונה
להצ
##מנות
מדובר
יק
##בלים
עי
כלל
ויש
תיק
##זרח
בזמן
##וקא
השנה
להי
##ופים
שמת
##כס
פס
וכל
##ра
30
קול
באמצעות
תוך
##טור
הדי
עומ
##שרות
טל
שצ
רבי
##ירוע
אוהב
בעלי
דר
לצי
עז
המשפ
##וחה
כח
##ואים
יב
##ליח
בראש
רי
##ברות
##יפה
חברה
ועל
המב
מלח
##רכות
##ль
צע
שונים
##נר
אינו
##רר
עבודות
##חור
להפ
השר
הבא
13
אוכל
##ודם
##בעים
עמ
שבה
שכל
אחרת
##ak
##טחון
##טות
להשת
an
הלא
##יוני
##ופת
שום
הזו
הטוב
צה
בחיים
16
יחד
איפה
מתוך
##ינים
ובע
הדבר
##פתח
##בלת
ומע
ירוש
##ליק
לדעת
שבו
##משך
החד
המל
קשר
אוהבת
##ומית
##והים
##ad
אמא
מנת
יו
##ap
##וחים
בעל
כמעט
התא
##טרי
לבד
לזה
ימים
האחר
אהבה
שמו
העבודה
ירושלים
ניצ
ברור
למרות
משחק
יור
##em
מרכז
המצ
##קור
הציבור
רש
רואה
##us
##לין
ליד
##נע
שונ
##קבות
##ינוך
כאילו
יודעת
שאת
דא
##😂😂😂😂
השת
הראשונה
##שרת
##צד
בשל
מדינת
##id
##מיים
##ברו
##רכים
##משיך
היח
##פורט
חול
##רכי
צריכה
רוצים
להס
בתוך
שאל
הנת
##זל
##חשב
תי
לפחות
##שור
החש
בירושלים
במיוחד
הלב
##סיון
17
למו
##שית
##יסט
##ותה
בתחום
sh
##וצר
טע
שמח
##פא
ניס
דקות
שיה
##ניק
להש
מבין
משמעות
##ריים
##ויות
##וצאה
מזל
##צור
קרובים
##רגון
##נחנו
מעט
מומ
##אב
##ואו
##ובל
ال
כבוד
##כני
##le
בלבד
##ייסבוק
##מאל
יכולים
בתל
##ניהם
יס
##בעה
##ביע
##כתב
משי
חוד
##דון
לילה
מני
למצוא
##ונית
בפר
##ביב
##ли
##על
נור
הטי
##בול
##וויטר
קיבל
העוב
##ינם
##עור
##כויות
וז
##טרנט
דוד
##תיות
בעיקר
קיי
השבוע
נשים
וכן
מעניין
חוז
אליה
חר
##כור
מים
שיו
נות
שנת
תהיה
חושב
משה
מערכת
##וסף
כס
להגיע
כוח
מצב
כפי
##ay
דור
בסוף
משרד
##וכה
מהמ
דין
רפ
מיוחד
הגדול
אצ
ואח
ולכן
פא
חברות
בסדר
החדש
##ראו
הרג
הפע
רבות
טבע
##קסט
##זם
##וציא
נכנס
מהם
##ראת
ומו
מוק
לגבי
##im
מצי
בצורה
##מאס
##ליות
השופט
##שרים
##קשורת
##ew
מחש
בעקבות
מיליון
האדם
גיל
לדבר
קו
cl
שומ
תכ
ובי
תפ
##יצוב
כלום
##טון
תחת
##ודית
מיו
##מני
##וצאות
הולך
באר
ליל
כנראה
ועד
##כולם
האחרון
d7
מופ
##דק
חדשה
כתב
פולי
דווקא
##דרות
סתם
שול
##ידו
##יייי
##חם
לתת
חברים
הו
מוג
הערב
מספיק
##יתר
המוע
וצ
##שיים
##ig
##ריק
##טן
##זיה
##ירו
כסף
יצא
##מבר
הרצ
##זים
טי
הפס
דיו
עמו
עושים
ממנו
ים
##ציות
00
החוק
לכך
הברי
טרא
##נסי
עסק
נו
בתק
##יחס
הקב
כאלה
עיר
באתר
הגר
##ent
ילד
##ac
##ביעה
##טיים
הדין
##וכר
הבע
שוק
##בן
אותנו
##נאי
##נטים
מנו
המד
##שיבה
הפל
##ir
25
קלי
העליון
##ידות
##ואל
##חן
##וסר
se
##גון
##מודים
חת
מרו
##ко
כשא
קטן
מידע
אתמול
##רכה
of
רוח
להגיד
יחס
במסגרת
רגע
זכ
הדרך
חצי
##חחחחחחחח
ואם
זוג
##רגום
##ורף
גדולה
ערב
##נהל
איי
חחח
##צרים
למשל
ביבי
##סקים
עובד
##ווים
##טב
לקרוא
##לון
##בורה
##אום
##אית
##כח
יר
לבין
החלטה
##ןן
##אס
לאי
##נח
לכן
מדה
##כונה
ללכת
בלתי
##תיד
##חלט
שעה
והמ
תנו
##דרת
##שע
המה
למח
שיי
הילדים
מוח
אירוע
דה
из
מאד
##tt
השלום
##יונות
שבי
והש
שנות
יי
בעיר
שית
אק
##וכלו
##וון
##וצות
מעל
##ולוגיה
##ברסי
##ose
רבה
##זע
המרכז
לפר
##иль
##ia
000
תמ
100
##סל
עבר
תמונה
ערוץ
הדברים
פול
ציבור
בזה
לפת
מטר
הדר
##ליחה
משנה
להבין
יודעים
##פני
כפר
שקל
הבוקר
היר
##ודת
השופטת
הסרט
##כלי
##יצוני
##פן
מהר
##דן
מכבי
קרה
לישון
##פתי
##קשה
##ag
המט
נוש
##טיבי
כיום
עולם
עצמי
##קן
##הל
הרא
כמובן
העצ
ממו
מוב
הכנסת
##יתוח
הודעה
ספק
изра
##גוד
אליו
##ביש
כיף
שט
צריכים
##כתוב
מצד
סג
נוספים
שלוש
הער
עולה
נוסף
50
24
איכות
израиль
נמצא
השלי
##ינה
חייב
##זרת
##ולר
שס
##ur
והא
יג
##חרות
ביי
##וחר
ואין
מיל
דעת
##יקים
ובה
אכ
הבח
רכ
לפעמים
##רצ
לומר
199
##בלו
שמש
קודם
##מוע
שמי
##uu
במשך
אזרח
##כום
##מנה
ככל
##ופו
##ובעים
לראש
##st
##ךך
גרו
ניק
הצד
רשת
החי
שגם
מאח
##קירה
והע
הכול
בשם
##od
תב
חוץ
איתי
עוז
##טא
קורה
##app
כלי
ומס
הישראלי
והיא
אולם
נוע
##דל
##סם
##רפת
##ומו
לוק
ירי
ומא
מצח
##נש
אינה
לעולם
הישראל
close
21
ציו
לצאת
שימוש
חמי
שיהיה
תמונות
מות
טראמפ
##זון
מו
ברק
בנוסף
##פג
##ow
עור
##נייה
##טיין
לאח
##חתי
##וויר
##פיה
גול
מיד
בנושא
##וצת
תוש
אבא
טוע
חברי
חיפה
במקרה
##מיה
שהי
למס
משל
באזור
איט
##וכן
ללמוד
בטח
האד
שונות
החלט
##ישה
האמת
##ושר
##ייב
##שיות
and
##פסיק
כות
זהו
חג
##דרים
טיפול
מסוג
פרק
##ומן
##יתונ
##ידים
בבוקר
בטוח
שחק
שיל
מחדש
##יעים
להק
שישי
האל
##הההה
##ציאות
##חקים
גבר
אנשי
לקחת
מעבר
כדור
mor
אלף
לטי
##עיף
##лиз
סל
##ינטרנט
40
близ
ימי
близко
פלי
##מריק
יהודה
להז
מבחי
##ינג
למד
קרא
##ובעת
עשו
ובר
##ייק
ואף
##אא
##ופות
מבק
##ביבה
לבר
שרו
חודשים
בידי
rt
##כך
הנא
שאתם
##שיב
שאנחנו
##ונן
נב
נז
##ec
##כלה
הרש
##סות
המי
לעבוד
שיק
מאמי
יצחק
שווה
להכ
רכב
ביט
סיפור
htt
לגמרי
##יקט
שנו
##ילום
השם
לאור
ראיתי
##נגד
טקסט
לחל
הגב
##ציג
ולי
##שתי
בנות
##מלי
##לחמה
משק
הבל
להח
חיל
אומרת
מהת
ha
היית
כוס
אוב
בעוד
##בב
בעי
תס
צפו
יהודים
כהן
יעקב
##מאות
המוש
##צלחה
##זב
המשטרה
##ורג
פעמים
22
##ציב
##און
לוי
טובים
מפל
##סוף
בעת
ארי
ואי
שונאת
לקראת
יהיו
לשם
השק
אומרים
האיש
##ויים
##ut
##וקי
on
קצ
##כוד
שלושה
##ov
##וביץ
##ורר
יוש
מיק
##דיו
##שן
##פית
שכן
##נין
האחרונות
במי
בינ
המוס
האתר
תז
אתר
לשל
המג
מתחיל
##סקי
לישראל
מיני
##רוק
##שש
##תרון
תד
הלו
עשה
הפועל
##רונים
ביו
pr
##ובת
##מוקר
האמריק
##ולת
מהש
##ווח
##ליף
השנים
נר
##מיות
מקור
##נדר
##הבה
אלוהים
חדשים
התר
##ואב
מילי
##כתי
##סר
##שיבות
##וניברסי
##ניסה
יהודי
בתיק
הלילה
ומי
לנס
בבי
##סון
שבא
אתכם
הרח
##נצ
עליהם
ענק
שד
בהתאם
משפחת
##נתה
##ימה
וואלה
המכ
הבר
http
והה
יוסף
ידע
פיצ
##טיס
כלומר
פעילות
לטוב
##ישור
##טיח
##ושת
לוח
כגון
ליה
##מיכה
לאורך
##וסים
ניה
יוצא
זר
##ers
##ab
ואל
חבל
האופ
טור
במת
מאשר
ביד
##וסיף
פנים
והח
החדשה
איתך
##יג
##פיים
תצ
##יוע
להא
כדאי
איל
מנסה
##רכב
אישה
צורך
היד
לחזור
ארה
המקום
לצד
##ריב
וחצי
נחש
בכך
מהא
##וויה
משום
איתו
##ומיים
התש
לשע
##וגר
new
דברי
ההס
##zak
miv
##כוי
סיפ
חופ
lt
פעולה
##ומרים
היהודי
מידי
קש
##גב
you
##ליל
##וזי
המון
מאפשר
הבעיה
רמת
mivzak
##onapp
שמא
mivzakonapp
מהע
##סור
העם
להסת
##רבה
ולע
דני
ישראלי
##לונות
##וניות
למת
מהח
##שהי
סמ
בעיה
לבן
מדינה
לשמוע
הברית
מקווה
המשפחה
##מרים
##סיס
בטי
##כרון
שרי
הבנתי
##מצא
re
גן
##בירה
##ודל
##מפי
האנשים
##סס
גבוהה
צוות
##וטין
שנע
כע
שהיו
כיצד
##ויי
##un
##יתון
סר
##ודר
חודש
ללי
##רוס
הקט
הוצ
שצריך
חשבתי
כוחות
דוג
##נאים
מדבר
הטר
קצר
התובע
החר
##מץ
##מרת
מאת
מקר
##טיות
##גיעה
הסת
הכת
##ни
עניין
הפי
מאות
ידוע
בדר
05
דולר
23
##שתו
מונ
##סיק
ורק
הוב
בנק
##אפ
עובדים
החינוך
##אור
לידי
##כולת
שלמה
##ul
##נסים
שהמ
וכו
##וויזיה
ממני
בשבוע
am
מצא
##פוי
אוו
בעצם
##רבית
##פרד
מסי
more
ארג
לעומת
##לן
ch
##משים
יפו
##מונים
##כונות
אכן
הביטחון
צד
צבע
בור
עק
##עיון
מכן
האחרונה
בינו
##רוך
##ברג
##ליו
##אללה
הכר
##וכנית
##יתים
והם
הישראלית
##גדל
המשחק
רואים
תפקיד
בשעה
מערכות
מומל
לימוד
##דיין
חזק
שמאל
##יינו
##ריז
אינם
ביחד
##ייט
כז
מראש
ושי
אחרות
ובכל
##ייע
השפ
להביא
##מידים
##דינות
יז
בסיס
ובא
מחז
שנית
##יתות
מחפ
תיא
והפ
com
שהע
הבאה
בשנה
##20
##פילו
##וקת
לחשוב
נשיא
למעשה
כשאת
מתחת
אמיתי
בקשה
במרכז
התקשורת
##שום
הביתה
##קשר
כעת
לאכול
##מרו
בקרב
##מניה
פסי
##ונג
##מום
##פוס
##ידת
##נועה
198
##יץ
al
הנשיא
##op
בול
בשבת
##um
מדהים
סופ
##ותם
ברא
##מנית
הלק
ומח
למען
משפחה
##פרים
מסע
חומרים
ההג
##גישה
האיר
בפייסבוק
מתאים
שאלה
##ופעה
נט
##גם
2016
##גרם
תומ
##זרה
בפי
בגיל
תהליך
לסי
הצל
##וגה
הטל
עצמה
ניסיון
##ניינים
מזרח
לבצע
##מודד
להמשיך
הפעם
חופש
הרפ
##סטר
##אג
##צית
אישי
מתע
המצב
be
וני
צוד
התג
##כנית
##ורם
משא
מחכה
מעור
מילה
##כרת
הפרו
זק
שות
שופ
נמ
פיר
זכויות
השמאל
מתה
מפני
שונה
גבי
##אלו
חק
באותו
האמ
see
בעבר
##ter
##תיק
##דרי
לטע
de
ותרגום
אמרתי
##net
והס
בוד
הצע
לאנשים
שז
מצחיק
##ורס
זי
סיי
הפנים
אגב
##מחה
צו
בהחלט
עיי
ריב
למעלה
ספורט
דומה
בשנים
שינוי
##דוד
שהח
##גרות
##כונים
בוא
ונו
נכ
התורה
##רגל
לשעבר
להשתמש
היסט
ממנה
ברוך
נשמע
##ותי
תוכלו
בסרט
בעיני
מנהל
לעבור
ושל
נוספת
חוב
השנייה
המשת
ובמ
הולדת
קא
רצי
##פיל
פק
##כוו
##יוס
מרגיש
שאם
##ראית
אול
חיפ
##בש
##עש
המלא
הגוף
##דד
##וטים
ומק
הקשר
ליום
חושבת
הרגע
האירוע
הפלסטי
##ארד
קטנה
##ושי
אחוז
עונה
חכ
##נויים
##ess
##יינים
לשמור
לעבודה
##יט
השאלה
להור
##רגיש
##לקת
עשרות
##av
מפת
אותן
##למת
##😍😍
##וכב
לני
פלסטי
הילד
##כנה
ובת
##רון
כלפי
קפה
##חון
##וווו
##זקים
מבינה
סרטון
טכנ
בעניין
גלי
חב
אסור
מכיר
##ףף
שמה
##שתה
##וספת
גא
##שייה
המפ
בעזרת
##דיה
לתק
אמת
הסט
##est
##פרסם
מקבל
##ברהם
בתור
מילים
##אק
##פייה
עצמם
מעצ
ויר
לילדים
הסיפור
##כנון
ליו
עת
הללו
מעולה
נעשה
סק
לכתוב
מדוע
##בנה
##ינוי
העי
לבחור
90
חומרי
##ליטה
הוכ
##ריט
##שורת
ממה
המז
צבי
##דרש
60
בגין
היינו
סת
במצב
כמות
קד
המוצ
הקד
וט
##ואלי
סול
היתר
צילום
##וביל
עליך
הטבע
2015
##זית
שמד
##דמנות
##ik
עומד
זכות
לעמוד
ערך
##כוח
בבקשה
צבא
נפג
שחר
##וסק
##מדו
פתאום
התפ
לקנות
##יסטוריה
בחי
בואו
##רוג
un
עבוד
קיים
ווי
##ריקה
ברגע
דיווח
##טרף
##if
החבר
ממשלת
הים
ליצור
##כרה
האש
הציו
ויו
##ורית
אישית
רוטר
עיצוב
for
ראי
##ost
##נסט
עבד
##מדה
מבית
וכך
##נגלית
תרבות
##קיים
היהודים
בבר
מגוון
השירות
##סו
תורה
עובר
שירותי
##לילה
לבני
בחש
להר
שיד
אלפי
##ation
##כלית
השיר
בהמשך
תקשורת
חייבת
זוה
ברחוב
חשמל
שהש
##05
היחיד
##פך
ייש
פיק
ויצ
הפולי
לדי
ארגון
##ראים
##ill
##כבת
המשך
##לוו
מאמין
במידה
חסר
לכולם
נצ
##ומט
##ер
סע
194
אחי
##ah
רה
באותה
סב
עקב
##ריכה
הצבא
##ניח
הולכת
גדולים
197
##ודעה
חתי
26
בלילה
נפש
לצורך
עלינו
בשוק
המר
ברשת
להתע
התל
פאר
העסק
רומ
##תים
##ов
##בלות
##חדים
2017
מסוי
גברים
##וזה
כפ
ביל
סוגי
מלך
מלחמת
##הליך
מקצועי
ניר
מקרה
##ועדה
קרוב
שאפשר
קוראים
והצ
בנט
השבת
לפיד
ישר
ולש
מהס
ארץ
חמ
ניהול
רופ
##נתו
כשאני
לבע
##ניי
הקבוצה
בארה
נתבעים
בטל
נורא
למקום
עלה
##לטון
27
אוק
##ist
##ст
##רוני
מאיר
##פקת
מומלץ
האחרונים
##יתית
שבר
יפ
##טרת
חדר
ynet
##og
בזכות
הרכב
ביר
תקווה
תוכנית
פסק
ויד
זוכ
מכש
שאי
מהה
קבוצת
צל
##ייצ
עליי
כולנו
##יעות
##יף
##נויות
האור
##ri
הסכם
##חוד
##עון
אמנם
קיד
חרי
##xx
##שיג
בימים
באמצע
תובעים
28
מאי
עין
##פסת
מחוץ
במא
##לקה
חוזר
כנגד
##יצור
לעזור
אבן
משות
באה
המוז
שיכול
בהן
חחחח
##ייי
שו
לראשונה
לחיות
מרי
##יבוץ
האוויר
שמס
העובדה
לשת
מלאה
עדיף
ריצ
הגדולה
להעביר
בשר
המים
##וטו
טרור
היחידה
##טיב
פרסום
##פתחות
היש
אברהם
סביב
לבדוק
ראשונה
מאחורי
רוס
בניה
המשי
##פרט
חוסר
אמריק
##רחב
החולים
קטנים
ריק
##חלטה
לספר
משע
##וטוב
##הילה
יקרה
##בעות
ההצ
לשנות
סא
ייע
בריאות
ממשי
נשאר
שירים
##זרים
באש
הצדדים
הקול
##ורא
לאומי
ממך
חשבון
לאחרונה
האוכל
מראה
ועכשיו
פרטי
ראה
אוהבים
70
##ייץ
שכבר
קני
להתחיל
##רגיה
##וונה
##מנט
##ונס
##גיד
##th
שקלים
##כנת
בחיפה
##ביעות
##חילת
##סקה
##רכו
כרגע
ייח
ממשלה
##ייד
שעבר
נתן
בערב
הרע
אפשרות
##טיקה
##קרים
אהבתי
הפת
נותן
האר
##רגיל
מתא
##וגי
##נאה
##oc
##ידן
הצה
סיבה
ימ
חפ
שנק
##נצי
וכי
פוע
מעולם
ספרים
להוציא
גורם
##טרים
חמש
##דיק
##חרר
##נהגות
##טיה
רשות
35
לשחק
לחץ
שהא
ולק
ניו
קומ
הינו
הנס
העונה
##יעו
##גרים
הבחירות
איטום
באלי
##שלום
ואפילו
אמרה
##טיק
לומ
##טרון
נושא
##בצע
לחלוטין
החת
##and
2011
מין
##שימת
ליבר
מעלה
עץ
##כירה
ביצוע
כזאת
חולה
ביטוח
לרו
קבוע
מבלי
##יתו
לאל
הוג
חייבים
בספר
שהצ
29
##בחרת
פיתוח
##וגרים
הגיעו
##חושה
##נל
##וים
##פשרות
ברחבי
דרי
המלך
##וטה
לציון
לשלם
##ושה
להחז
פיגוע
עוק
בשלב
השל
ציון
בעד
המקצוע
##מדים
מדברים
לחי
##חלה
##דבר
##ודע
טרי
חינם
כזו
לכפר
##ct
שער
##והה
##מינו
עסקים
במדינה
הכבוד
ועם
הזוג
2018
ולהת
##באי
ביה
והן
##כנים
196
סליחה
התחת
ובש
en
תקופה
קונ
בניגוד
המבק
פלא
ישי
פוג
באיר
להתי
נוכ
##מדת
הפרי
##מויות
##בחן
##נור
המידע
אבו
באל
שיא
ההורים
##כוון
ראשי
אוט
חם
חזר
בלא
##מידה
שרה
עיתונ
שלישי
יורק
אוויר
2012
ברמה
הוק
##צעים
מצוי
##פוץ
##מב
תופ
ירו
הומ
דלת
לשים
ערבי
חיצוני
נולד
me
נפת
כאמור
עלייך
בצי
##מכים
היטב
##נקים
שור
שנתיים
##שמים
הסכ
##ודו
דירה
##סטית
מוכן
לבוא
גרי
##פיות
##דיים
הגז
##ובב
סוכ
העיקר
##סוק
ילדה
שמן
לפנות
להיש
הבריאות
ארבע
רכי
קורא
סד
##וער
קוד
נקודות
הקרי
##טג
אמור
##סום
פות
##10
##ны
##נתן
המנה
אמרו
##יהן
שאר
##לאות
סדר
##וגים
המופ
להלן
##פלגה
מכת
המאה
המער
דרכים
##טט
נמאס
מדינות
##פעל
##ההה
מהפ
##ובד
לבנות
לדעתי
למנוע
con
דח
ברמת
פתי
ומצ
ענ
מדו
ועדת
ראו
as
שאינו
להיכנס
מבח
נוספות
שקר
משחקים
ארוך
##ייך
##מנת
##נוס
בצפון
נעים
שכר
ירד
##ווית
##ok
טיס
יחסית
בחר
##אורה
הקל
לרוב
מעוני
בעיות
אחריות
הבן
##םםםם
אייל
80
ליצ
##יפים
לרכ
ניש
קופ
בך
בטון
כשהוא
##ודנטים
מותר
##עדי
##נטית
##uuuu
להתא
##ולוגי
##חוק
##הוב
לדברי
סעיף
מפר
ביקורת
צור
להד
##שויות
לעז
09
ביחס
##ועה
##מלה
המלחמה
לקוחות
##שמה
בצד
לחוק
מלב
בפעם
האנו
נשא
מיום
עמוד
##ce
##חלון
בהצלחה
כשר
שוא
קבלת
##תיע
ברג
לדוג
ממלי
הטיפול
##וניים
פרח
##וקף
השימוש
אצלי
##מוס
ואתה
מושלם
##אני
רצח
צינ
הנק
מבחינת
##טס
מתנה
##כרו
בוח
רקע
03
הקוד
הלוואי
שרק
פתח
מכירים
בסופו
תור
חזרה
##מינים
שינה
##פחה
##מפיין
דם
הימים
##גיש
הפך
##אול
עול
07
זונה
פט
he
בחודש
##טיבית
יגיע
רחב
יכולת
חולים
קבע
גוף
הנפ
99
פרשת
##ht
מעדי
איזו
##רחק
יאיר
##שרי
שמחה
טובות
עצוב
במשרד
##יתם
קיר
דיס
הרוח
##он
להתמודד
קלא
לארץ
##ופל
45
le
לפתוח
הסיבה
הוע
עשר
##וריון
שניתן
יצי
היחס
מטע
יופי
יית
##למים
לעצמי
מאוחר
##af
it
##ביות
חושבים
##ואן
שמצ
בכפר
##יריית
שחור
##נדי
##נב
##קק
קשור
ישראלים
##כז
יוע
הבינ
חמישי
ויק
דת
להפוך
עב
##ine
##דית
אכפת
חובה
אינט
יקר
גז
##ראיון
##נז
הכסף
כיוון
טעם
u05
סופר
##בורים
##געגע
החז
##דימה
נמוך
##קול
והיה
מנכ
מחקר
##קוב
##גובה
להתק
עשיתי
מנג
בתחילת
מגע
##ופול
דג
שתה
בקב
ובין
##ושות
https
av
בחיי
התובעת
##ish
##ואות
##ומיות
בקרי
בעבודה
אצלנו
להשיג
החוץ
נזק
שאלות
##כלו
##יון
לעבר
סוב
##גוון
שנש
ויה
התמונה
אוס
האג
##ор
וזאת
נפלא
post
##מיר
##חשוב
מגד
משר
לטובת
השאר
במערכת
לביטוח
##כונת
בחדר
שיעור
שמישהו
המערכת
##ודיע
חיו
מהד
##תיקה
רציתי
##מאי
##ברר
השחק
הנע
קבוצה
31
כללי
מושג
לציין
ראוי
והג
##חרי
##ort
צעיר
##פוך
בתא
ולח
מוצרים
ar
אתרים
מנד
אירופה
אמן
##ניב
חור
##ילי
ספרי
בטוויטר
הצעת
##וכים
##ונד
צרפת
בחברה
אוי
מבזקים
08
co
קרן
go
##חירות
##נפ
עוצ
##וין
השתת
נגמר
עזה
מעריב
##מרה
דק
סיר
האינטרנט
ביניהם
##ונש
שהה
##כתה
טוויטר
מהי
מוקדם
ויא
##ריכים
טעות
אלב
הינה
##כנו
מבר
##ושבים
וול
##ide
נוה
##מורה
הפני
במשחק
##שב
ציפ
דן
שיחה
ערבים
עורך
בפועל
נשי
הולכים
בגר
בקרוב
הקמת
##גלה
##עתם
2014
בחלק
לשבת
לנת
האס
השונים
##וטל
מכך
מבט
האזרח
לגרום
##סיה
sp
כתבה
##יימים
##זרו
בחוץ
מתב
##רן
שגר
חלב
שמות
##קם
שהס
##ran
##ен
##מטיקה
אורי
כשאתה
בבל
מיר
##ריע
ציוד
##all
פרטים
והי
להפסיק
זוכר
מכיוון
חמוד
ושוב
בצל
ורו
##יבוש
##לויות
שמונה
##זין
נהרג
התרבות
אנטי
מגיעים
##ולדת
ולאחר
החלק
לצע
##מרות
##גנון
ולב
ויע
שלם
##יאון
העל
לחת
המוח
בסך
מבקשים
שקי
##יימת
מטעם
לאתר
אט
##our
הכות
מרת
מוות
לאירוע
דף
בנימין
##נדה
מזמן
##ונדון
תשובה
שלח
לשלוח
מצליח
הלח
שיח
מפע
סבא
בערך
איראן
##גישות
למא
##בדל
מלחמה
##פחת
חומר
הליכוד
##קיה
אמי
מסר
יאללה
צודק
##ודד
כואב
אדום
##כרות
הבינלא
##ie
שעל
##לכה
##פרו
##תתתת
מוזר
מבצע
רחוק
תלוי
יבוא
##דינת
מדר
לנסות
ויל
##را
שבהם
ידעתי
שוח
500
עצמך
בצה
לשר
פיל
גרוע
##ורו
ואולי
השלישי
##רע
שמואל
##😂😂😂
איתם
ומכ
מחירי
הכס
ללק
##ורמים
##ip
מוצרי
לתח
אוף
ליר
כותב
כנסת
##וקס
##ניס
##רוכה
הוש
##כלים
לכבוד
כלכלי
המציאות
##יפות
הראשונים
קיימת
##מז
אודות
195
##דיש
מבינים
##טרק
##ard
מאמינה
ישנם
שונא
תושבי
כבי
מציע
כולו
סקס
##ונו
כתוצאה
נמו
איתה
רוז
להכיר
##מונת
קיו
מבקש
##צוף
המזרח
##טרות
שהגיע
##בתא
##ופית
לקום
שמעון
##ילוב
מקבלים
##מלא
תכנית
מתאי
בכיר
מכירה
##מוקרטיה
##ар
איתן
היהודית
האינ
wh
מחפשים
##לבום
##כין
חגי
##שתת
##וטרים
סיפר
זכה
תרו
##פנים
הגול
מלון
קה
##כניס
##צועים
לגי
##ונט
סיכוי
צר
פרופ
דמי
##בלתי
שלב
דרו
שטח
יכולות
##וכבים
להב
באוניברסי
לצפות
יוסי
חחחחחח
והק
עתיד
##פטמבר
##ארט
תוצאות
בכדי
##יהו
##קף
הזדמנות
העול
האישה
##גשתי
העניין
##סטיבל
החברות
תמיכה
גיא
בבע
בנים
##יקו
##לטות
המילה
גורמים
בשטח
הכדור
התביעה
חחחחחחח
bb
##נסות
אירועים
באינטרנט
##ver
שרא
בדרום
לנק
השרון
מרגישה
הקרוב
36
מיליארד
מסוים
לעלות
##az
04
##ight
##אלות
לקב
משמעותי
##לושה
אישור
אליהם
מקומות
לנצח
##וגיות
התנועה
##ud
מלה
ימין
##זות
##נסקי
גזע
##נשי
מזכיר
##ריון
להסביר
האו
עני
ששי
##עע
bl
מסתבר
##ניהול
הדת
il
לעבודות
##נחה
##נרת
##ביעת
משתמש
ישנה
02
התחיל
קירות
01
וו
##ומם
כשי
לחיים
קרב
##שטיין
מישהי
חינוך
##art
באור
נמצאים
##גול
##ניום
האוצר
לאט
מהבית
וכמ
במצ
38
כתי
##צבן
כיס
##וטובוס
עשרה
##ציא
מבוס
##טרס
בשנות
בתקופה
הוס
יוכל
לתוך
דירות
שמעתי
##כבי
מאחר
כלים
דיבר
המוב
להוסיף
תינו
דיי
יחסי
חמאס
tel
סביר
מרד
##כשיר
הפרק
וסי
##ет
ויותר
נדר
06
הקור
רצון
רו
אושר
הרבי
##צרו
##ריח
שקט
##ירתו
##מיני
בערוץ
תיקון
pl
בינתיים
חיילים
לאן
מקל
יתר
##פחות
##פד
##מנ
##רוע
התחל
העת
ניתוח
##ודאי
##טען
האת
בתוכ
שימו
נוצ
שמדובר
וית
##ורד
##סית
##יפוש
##ub
שבועות
דקה
התב
פרט
שנייה
##חית
##נסו
##end
##ant
##ריד
הפג
##יקת
##ולוגית
שהן
ואמר
תנועה
הצורך
##שפ
##קרב
##מותה
במג
העובדים
##ob
נתונים
##כנע
למות
הורים
ad
##וונים
##טחים
בעלת
ארבעה
בנוגע
האב
##ננה
הנתבעת
שדה
בקול
בגל
##טויות
לתל
מפס
תואר
צדק
שבח
בקלות
מפור
##ובמבר
וואו
טלפון
לוקח
מיוחדת
קיב
סימן
2013
מועד
צעירים
בטר
סקר
##ere
שחקן
##ат
להן
לשאול
193
מלי
פתרון
qu
מעשה
קטנות
##צרת
העיק
מזון
עיריית
##זת
##ach
יוני
##נוק
בשני
חרא
קבוצות
ltd
##רין
נפצע
כדורגל
##טובר
נוח
הופך
מסך
באנגלית
##קין
מתן
my
##שיון
ומב
מהווה
בפע
והנה
כרטי
##טוא
מקצועית
שנפ
תפי
מוט
דיון
##ילא
ועדיין
נצי
לגלות
הקטע
##ביה
מיכ
המור
סבי
שזו
##מכם
##ילית
בפתח
נחשב
חחחחחחחחח
שרון
##סקת
32
##לחמת
אקד
##ליחו
הלה
שניה
##ובית
שיפ
שנא
##ענה
##מנע
אנג
##וצי
ההז
##בוש
חכם
דרום
בדבר
פוט
מתחילה
##ידול
פעמיים
##יתוף
לתי
חנו
הלך
נסי
בהס
תמי
מתחילים
מטומט
##נתיים
בעברית
יעשה
העלי
הנוכ
הפלי
באירופה
##אהב
ביטוי
להרגיש
והד
ללב
במקביל
מצרים
לרכוש
יוצאת
הקש
שיער
למק
33
הגדולים
הרשות
לפעול
עיס
##ונת
לשני
##עימה
אליי
בלה
via
הנושא
ליברמן
##ith
יהוה
##לתי
##קורת
##כלת
##ועים
עשוי
אזור
שהפ
תנאי
לחש
ביקור
2010
מחפש
רגל
אובמה
##לטת
ההחלטה
רלוו
ידיעות
הגי
טבעי
המיו
סימ
##נף
##שיית
לחברה
השוק
##ry
##יציה
תיע
##ולחן
סגן
הדיון
אחלה
##ביים
שכול
##שאים
##וברת
האהבה
##מצאו
שאמר
הספ
ומד
מחל
##ירייה
300
משמעותית
שומר
הגל
##וגיה
##ain
פוסט
לכאורה
נחמד
תעשה
ויי
בחורה
##ננים
##נך
הגנה
שאינם
סמוך
##בריה
ארצות
הצליח
מהיר
בואי
השב
שאף
##רחש
נקי
חייו
המחיר
##ירוף
בינלא
בתע
המחש
לקח
בגד
תשלום
##וונת
חשיבות
רוסיה
לפגוע
מזג
אפשרי
כרטיס
לטיפול
עובדת
ואילו
וידאו
ייצ
הגיעה
בכי
##ריס
##מדות
נשק
##50
ציוץ
te
ואנחנו
we
##געת
קורס
דרעי
ורג
מאר
אלקט
העברית
כאב
ממע
ודי
הנשים
##ark
אינטרנט
אוטומ
המדי
במהירות
מדיניות
אריה
##ive
ממשיך
עמוס
נוג
וכמובן
החברים
##בילי
פצ
##חיד
דמ
צפוי
משתמשים
ביטחון
אלון
זהב
הנכון
תחום
גשם
בחו
משפחות
דניאל
##סד
מורה
החק
ארוכה
מסכים
להתח
##ילוי
הטובים
השואה
##וויות
הביטוח
##מחים
הבנק
קרית
הנח
רפוא
בשירות
לחפש
##😂😂😂😂😂😂😂😂
לרגע
by
ולת
וכמה
הערבים
##יונ
##يي
##ки
לרי
שרת
##אש
במחיר
נאמר
באו
##ניון
אלינו
##נכ
מצאתי
בתפקיד
החדשות
##ארק
לוותר
כחלון
ובח
כתוב
ורי
תגיד
אילן
קדימה
תוכן
##ell
##וכית
פייסבוק
התשובה
מוזיקה
##ack
אע
מדע
##ומד
##יינת
פינ
##פונים
מעין
יושב
##ge
##rat
הנתבע
לעיתים
##טוס
##צמבר
בבתי
##קרות
##ודיים
הימין
##од
##ובדים
חום
חוג
##ישים
כאלו
העור
הבאים
##ne
כביש
להיפ
##בך
ההבדל
הקהל
אוני
חוקי
כולה
טוען
נתי
פתוח
לאדם
ex
הלימודים
34
##יתונות
דפ
הטובה
ממי
##קלון
מביא
התוכנית
בכנסת
אקס
חשב
##но
חן
מבחינה
##12
רוק
##פליק
קוק
##פקד
##מיק
##שנות
##פיע
##ניף
יפים
נקבע
בוג
קלה
##ка
##יוט
ואיך
הטרור
##מינה
##iz
אביו
המנו
פעולות
##דיקה
##נינו
##נהלות
סיום
לכיוון
האלו
##ולוגיות
תקופת
החול
הארגון
אינס
לעצמו
מהן
שוכ
יצר
נאל
##oad
יואו
אמיתית
נכונה
החליט
##מרט
##עתו
להגד
צפון
איכ
נהג
##גלית
##רבות
באיזה
המלון
חשובה
והב
הלקוח
צומת
ברוב
בנת
עברו
מאל
השח
במטרה
וכד
רבין
לאפשר
היצ
יומ
##אלית
##בדה
##פיד
חזקה
##כתבה
גופ
##גרה
קבל
##בוא
הפרטים
אמנות
רביעי
ברכ
המשות
##וזר
מצט
המועצה
el
הקהילה
נמצאת
במקרים
מתל
האנ
לים
##רגש
##נסיה
##גלים
הנראה
להוריד
##ודיה
##חחחחחחחחחחחחחחחח
ובס
##פרת
##עזר
בשעות
להכין
בחירות
##יגה
##מתו
##😭😭
נקרא
שטר
מוכר
לספק
והר
יין
היוע
##ליכים
מצפה
##זן
הכוח
חיה
מודה
##בינו
בוט
##ניו
##והר
היס
##זרי
ייתכן
אפס
מכר
שאנו
##of
##ודעות
ופר
טעים
בבני
תוכל
##ילד
במספר
##ust
והכל
##מנויות
בהר
רעיון
להישאר
רפואי
##לתה
עיני
אפליק
שטי
##ong
לעצור
מאוה
מרק
שיצ
##למות
תיר
שעברה
שהייתה
##ומיניום
יהודית
מתקני
עמד
##וברים
בבחירות
חיס
המות
מיוחדים
פחד
##ולדות
##טוי
רוט
בטוחה
תרג
##עדה
שבין
אליהו
##ال
מבנה
##שט
משם
##11
##ניתוח
##כמה
לתפקיד
דב
שמק
צעד
##טלי
הממו
##כוה
מצווה
האקד
הציבורי
##תיי
אריאל
לאחד
צינורות
מגיעה
##וסקים
בניו
שקד
דמות
חוס
##כנולוגיה
##דיות
##חייה
המפור
##pl
##צעי
ההגנה
##ice
##יתנו
שליט
br
שוקולד
##ace
התיק
להשק
הנאשם
מעמד
החלה
רגב
ובעיקר
להתפ
המטרה
##ערה
##גיה
מפלגת
##ופס
ון
חברתית
הרשת
בימי
48
דל
עתי
לפס
פגיעה
גבאי
זיה
דוא
וואי
##וגות
##צם
גרמניה
עובדי
התייחס
##נטיים
מבע
הראשי
באח
##ies
למצב
מלבד
סיב
הלאומי
##וזים
באירוע
שפת
הצטר
איז
להיר
להחליף
שפיר
##רבים
הנד
שהייתי
##פח
אשכנ
##der
ובו
##מסר
שיתוף
עמוק
המשרד
מוקד
##לנד
לעתים
פלדה
נהיה
הקודם
הפוע
הבה
נוער
מפי
קיבלתי
עמי
95
אליך
החלו
##נהג
פועל
שלהן
משחקי
עיניים
fr
מוצר
מוזמנים
התעופה
##ועדת
##סטים
מוצא
or
לבקר
##ליטות
2000
נפר
הלכה
אורן
ונת
לאהוב
עמית
##חתה
עליכם
ולס
גרם
אהבת
בושה
החופש
##שאיר
##qu
להאמין
עבודת
##וקות
והמש
##פלים
המחוזי
בחשבון
##טול
בתגובה
##15
קרקע
הסדר
##ניקה
השמש
התיכון
משמש
ברצי
שערים
2009
##ליטו
שבש
משול
##וצץ
לחלק
יומיים
מחשב
##ענו
זין
גוריון
הפעילות
גולן
ריי
2008
טרם
נותנים
##זמן
בקשר
##ity
לרבות
מירי
הסביבה
למישהו
כחלק
המומ
bu
##ויב
לשכוח
##קדמות
ישראלית
##ילויות
תשע
בפנים
יצאו
##כנות
##זוק
##ודיות
היכולת
ביצ
##וזיציה
לקבוע
נראית
עיק
מאיפה
ריש
גדולות
ירוק
us
##כרים
חיות
הרכבת
לשימוש
המחקר
יוצאים
האזור
במאי
ניי
##ילן
דלתות
טא
הקיץ
שווי
##יין
בינוני
מחשבים
חוזרת
שיווק
##עורר
vide
תחרות
המוצר
ונע
בפרס
להניח
דיא
לבקש
המבקש
##נגדות
קוב
##זוג
בבאר
##רש
הוועדה
##חתם
קראתי
##אד
##ib
בתקופת
משיבים
##נוב
##ירון
at
##צג
מבחן
##בני
الا
שולח
להעלות
ph
##יווק
בפרו
##זיקה
##ash
סבבה
חיר
באחד
מעלות
המילים
##נסטגרם
##ברואר
שירותים
להחזיר
באת
אלייך
מרגש
הפור
השידור
ושם
הרעיון
##טרך
מקסי
שאנשים
קיימים
שוט
מגן
37
##צעת
מפקד
בניית
פרויקט
##ит
##age
שיותר
##כרתי
טיול
מדברת
44
##ושע
##ואליציה
##נצל
מרכזי
##כלתי
##ian
לכול
##ייני
הממש
המפלגה
לדא
חלום
ישיר
43
##שיפה
בחול
##נטה
ביקש
המחבל
רופא
##ויה
u05d
כושר
גישה
ארוחת
מהב
בלעדי
צפ
תגובה
one
ישירות
אסטר
##ווא
כלשהו
זוהי
שהב
רכבת
##אט
הדור
amp
אשת
##בורג
פג
##כבים
חטי
חייל
##ושם
tr
לנשים
ראשית
שיניים
רצה
##נץ
בגוף
יצירת
הסדרה
ואחרי
##נאות
##כוהול
##כנן
משמע
להציג
מאור
עברי
התקופה
##ונק
##נייני
##פעיל
הטלפון
שהופ
aviv
טקס
##טחה
הסוף
מהק
##מורת
המשק
##יתן
יוכלו
ותי
הקטן
ספי
חצ
ובכך
##ודיו
המרכזי
המוק
##ate
##one
לשלב
פאק
שניים
הגישה
הנוער
##יונים
##ינן
לבל
##כורת
גולד
##לאה
אנרג
שבמ
תרגום
לעניין
שאוה
התמ
לזכור
##עין
מינית
##נשטיין
החמי
##ציית
##ин
למדי
קרו
##לע
לציבור
אדמה
המורה
##גרש
ומג
לסייע
להזמין
עדן
בטלפון
##זיק
la
שיטת
מצוין
שמגיע
##כוז
##ан
with
סור
מנסים
פרץ
##רררר
##ולו
שחקנים
שואל
גמר
ריח
באפרי
מתפ
לחם
לשירות
עומדת
פתיחת
קפ
##פרה
##ya
באים
האמיתי
##מציה
לקבלת
להגן
רחוב
המיוחד
ונש
##טימי
עצי
לחבר
39
סבל
משתת
הספורט
##ле
הנתונים
##מוי
היע
##יבוי
שילוב
יוח
😂😂
##וסייה
רגיל
שכולם
##כירות
##נטיות
חוות
הערבי
מתוק
מכאן
תחילת
משטרת
אילת
חרדים
הזי
טה
סוריה
עלול
בים
שקורה
כני
##שובה
כבד
להגיש
##ובש
##כבות
##רטים
##ומך
##לחם
אבר
להקים
בעתיד
קהל
##צחון
יחידות
אילו
הפיגוע
האז
התנהגות
מהצ
תפסיק
לעיר
##ast
פח
הכח
תשת
כיכר
מפחד
חופשי
מאה
שירה
##לחתי
##up
video
בכתב
חמישה
הרשמת
מורכב
הרצוג
הרשם
משנת
שיחות
42
כלב
סרטים
מנחם
בעלות
פסח
הנוס
##ודא
ובני
סיל
לטפל
##מידי
##ןןןן
אלכס
אופן
משקל
חשבו
בריא
יובל
##ינון
החשמל
למשחק
##עויות
עג
##אשר
שבועיים
באשר
##ידוש
##נברג
מתייחס
סדרת
מאיתנו
במקומות
משעמם
לימודי
בוכה
אשתו
##יקטים
העד
שיצא
בגדים
אמו
אישום
ילדי
האמית
##וסטר
##ארי
באוק
##לאי
העצמאות
ניקוי
סיד
סכום
ההר
##וכיח
הנוכחי
מרדכי
במד
##נטר
##ועד
קטע
##כאון
מגלה
##ביו
ne
תאו
עומדים
כספי
ובל
נהדר
##ונם
הבד
עורכי
שליטה
אסת
בגן
הצוות
מנצ
##ארץ
השלטון
פתרונות
מיכאל
שינויים
הגיוני
הגעתי
מועצת
##ידום
לזכות
אמש
במועד
בנה
סוד
##מירה
##sh
יחסים
עתה
שהכל
שניות
##ולל
##ind
מענה
אמריקה
להראות
מחוז
להט
האפשרות
בארצות
עברית
השונות
מאו
ילדות
תות
האישי
##רגן
##משי
שתהיה
חות
##משו
ליהנות
##לללל
תלמיד
ההיסטוריה
קריאה
מוצלח
רציני
עזרה
סח
זע
הוח
לבח
אחרונות
מאזן
##מודדות
400
לחג
להכניס
הפעולה
בסוריה
הרגל
ישן
בחור
בשבילי
קמ
##כרח
ממת
שמר
התמונות
רווח
##קפה
##ריכת
ונג
מוסר
נתניה
במר
הטור
קשים
מרצ
מודיע
רט
##דיא
55
חוזרים
שחש
מקורות
##למה
עלות
no
שאול
חיפוש
##וערת
##בתו
ברורה
כמוך
##יצה
בקה
קס
שעש
##פקים
אלימות
##ass
##יפוי
תראו
שכת
בנא
##ווו
##מוני
הבדל
מנות
הציוץ
בחוק
##כא
ספצי
##נסיבות
עצמית
מפה
אבנים
מבנים
##לד
##לחת
מכתב
וצי
פורסם
הלבן
ההסכם
הדירה
##תייחס
שעתיים
ולמה
ברצ
המקור
חשש
ויס
##ель
ברכה
מנהי
הבסיס
לתקן
מסביר
net
ממשיכים
תחושה
נכתב
בוז
עצם
הצלחה
יסוד
נפגעים
מחיי
##ביס
##ובלת
לקיים
המחשב
##מצאים
##ולין
ביש
##טרנטי
לאר
המבנה
הביא
נותר
##נדל
##כולות
הוראות
העיניים
##פקה
שמים
המדינות
תביעה
המשמעות
מסמכים
##לאת
חדרים
הבלתי
2007
הפכה
בשקט
גודל
שניהם
לאף
עברה
##ви
המלח
##oun
המלצות
##ופט
השירים
העיתונ
מסוגל
##םםם
##כלס
דול
ושה
מחבלים
משטרה
במל
בעצמו
החרדים
##סטיק
פיי
החדשים
מקב
הלאה
##ייקט
לנה
לרשות
מציאות
מנהיג
##ייפון
##19
הית
שרוצה
אשמח
לבטל
בתהליך
##טינג
2004
הכולל
אדרי
הסבר
רשתות
##דיון
להתג
##ליפ
מאמר
בוו
##ييل
מעניי
פרסמתי
מוציא
##for
שומע
בהרבה
רשימת
##געו
אזרחים
תנועת
פעיל
נחל
##ook
עבורכם
כניסה
пр
##גידי
הפלסטינים
אן
חברתי
בראיון
##ome
##שוואה
און
הפסי
##30
##גינים
##ווירה
וכש
news
למג
##בלה
מפתח
הכוונה
מהג
מיכל
##ואין
גבול
אמאלה
פרחים
כץ
נפל
הנפש
קשות
הצעיר
##בירו
##לכת
##ect
קוס
הדעת
לתע
במט
איו
למכור
דוק
75
##זציה
ריצוף
לרח
בלח
החדר
##יימו
לשון
##קוד
העבר
נתפס
פרטיים
התפקיד
לפרטים
##ציאה
אבות
לסגור
מותו
שפה
החלטת
העש
##טוף
##22
רדיו
אתן
הלכתי
חסי
טען
##קתי
##ובדה
הקרקע
עדכון
התוצאה
המרכזית
הודיע
מכפר
ואתם
שעוד
ונה
הדם
##16
תראה
מנע
קיבלו
למדינה
קיש
במזרח
עלייה
בכמה
האמריקאי
החג
לסרט
עפ
מסוימים
קידום
פוליטי
##פיץ
ונס
65
##למי
שלפני
נוכל
היחסים
מומחה
החומר
זול
ההוא
ופי
דרכ
בכביש
לפרס
ולמ
בראשית
מצליחה
ap
הסמ
לנהל
##14
הבינלאומי
יוז
לעד
מחירים
מגדל
ולד
קצב
מחבל
בחזרה
טלוויזיה
סבתא
##חילה
דלק
ישיבה
120
אימון
נעצר
אלומיניום
בכר
##ph
חנה
##17
ארד
בשבילך
תוספת
הקומ
ניצחון
מוכנים
ייעוץ
לדוגמה
בראשון
##سرا
השעה
##שרו
החלטות
##ייף
חקירה
ממס
המוכ
ונק
האצ
##ld
tra
פסיכול
מקרים
עוברים
הפק
בנג
רשמי
##נציאל
טענה
בדיקות
פסיכ
בדיקת
מחס
המבקשת
טו
אוניברסי
לפתח
מית
צוח
ברחובות
הכניסה
המוסד
הקרב
ולג
בתמונה
כוכב
מאפשרת
ממח
לעיל
##פוט
אדי
מערב
אנגלית
כוללת
##ווט
אופניים
מידה
האלבום
זוכה
##חינה
המאפשר
זכוכית
אזרחי
##❤❤
😂😂😂
העין
##ייה
להצביע
חוויה
##מנטים
המודר
גע
בטעות
אמונה
יולי
אפשרויות
גבוהים
למטה
לכי
מעוד
im
מתוכ
נבחרת
##יעת
##וונות
לבכות
אחותי
וכבר
לענות
##ריאות
##יינות
##ומק
في
שיט
להיע
צמ
בהג
מקבלת
##קטור
לדרך
ציבורית
##פריט
דיגי
טיי
2006
הבנות
פועלים
##גדים
##נצח
קיום
איכותי
מדהימה
##ופק
וזו
לפרו
רות
איד
לקדם
הדלת
חיבור
נקודת
ההשק
סובל
##רכיב
התהליך
חוזה
משפטי
הבול
איננו
מהו
הטוויטר
לרא
הפרס
נתק
מודר
בתים
##לאים
בתקשורת
נדמה
עצבים
כפרה
תחושת
במאה
הוציא
עזר
##כירים
##se
##טייל
השטח
##וזן
שהול
זרים
##חקיר
הנסיעה
אחראי
##טסאפ
##תתת
##וריות
לשיר
התחלתי
בבת
שראיתי
##קנה
פשוטה
בסגנון
טיסה
##ية
חני
מרבית
עשתה
##سراييل
לאו
הפוך
המדע
דוב
עוזר
##ויח
נשמה
גנ
##ite
זאב
דובר
הון
תן
אשה
תלו
התלמידים
שחי
מתכוון
##פלי
46
##גוש
ברית
מוכנה
ולצ
בנייה
לחכות
שולחן
הידי
הודו
לשכת
סגל
מזרחי
הקשה
האחרים
di
אוג
מפתיע
השפעה
מעש
היסטוריה
לייצר
##ובס
מאמינים
по
הגא
בניין
בסט
להרח
##לינג
בדיקה
אנרגיה
ומר
##uuuuuuuu
מבקשת
חשובים
##cc
##יבוק
הוצאת
##בדו
הבת
הלקוחות
תמורת
פירות
עומר
גוש
מסכי
עיתון
נבחר
ברשות
ma
דורש
רוני
הטלוויזיה
חלקי
##ובלי
השא
להצטרף
##ביד
תקציב
התפתחות
בקיצור
והנ
##סטרו
לחדר
מימון
פלסטינים
ישת
בפרק
וטי
מכון
קיצוני
סיפורים
ורא
נקודה
גאה
נפתלי
שהק
וחלק
למדתי
רד
רוע
טענות
חנות
שיחק
זור
מושלמת
מכה
מחפשת
##צרות
חח
קיבלה
##ביאו
דיר
##בריו
איסור
להרוג
גני
##ודשים
עדות
##פעמים
##ומדים
שפור
##מיקה
הקטנה
##כונית
היפה
וטוב
לרדת
ציבורי
##ue
##ial
##מורים
כשהיא
##ניקים
רוצ
##25
ברכב
החלטתי
אמרת
החודש
נול
לשתף
##נציה
מציעה
##יקום
מופיע
קיץ
תמר
##ופעות
אשדוד
##בתם
לרב
כלכלית
הודעות
##בנית
##מיחה
חזן
ותש
##וריאה
להזכיר
המונ
לקרי
נושאים
בכדור
שלטון
בשיתוף
##ly
עידן
וללא
##ные
##מעת
הקונ
##לחו
##כבה
בהק
החיפוש
השניה
יוצרים
ואבי
מסוימת
הצבע
הזר
גיבור
##וגת
##צאים
המועד
הפרויקט
ציל
מחלי
wor
דמוקר
##ורן
##בוב
להודות
בשב
##זורים
לנג
לומדים
ניסה
סוכר
ww
ידיים
בינואר
אינן
מבני
למשך
לצייץ
העברת
החוף
לעין
מחזור
##בעו
##דע
תוס
בחינם
##אזל
תוק
##ותרות
not
הקו
id
והכ
הישראלים
דאעש
##צרה
לדר
חכמים
##בירים
המשפטי
##רגונים
שידור
זקן
בשום
נמוכה
אטרק
מחול
עולים
ואחר
במילים
##כסוך
##גיון
##מטכ
הפול
הות
אמצעי
שדרות
##יונית
##io
מעוצ
##ek
אנא
ופת
הכה
הנחה
מהמש
##טחת
##כללה
מועדון
קצרה
בהצ
##מפרט
לדאוג
מתקד
מכשיר
נרד
##אמה
##זיל
##ריו
49
##ופיה
איתנו
המוצרים
ברכות
פיס
לסיים
לעזוב
תשומת
פוליטית
##יז
ביטול
##ние
מהיום
בצבא
כתבתי
##בנו
בקבוק
##מותו
החוצה
##זול
המקומית
עשיר
אחריו
סיני
טיח
תכנון
##ure
שהרי
בצבע
##כלות
עילית
לוב
להתייחס
בהיסטוריה
##13
##בחר
לרגל
פיד
נציג
כחול
##ביט
יעלה
לוקחת
הגיש
צבאי
להציע
זכתה
זרי
גילה
בכוח
בריט
שפי
תפק
##יסטים
חורף
ריא
מתכוו
הארי
שתת
התכנית
##חרור
##תיחה
##פלת
החורף
החייל
תושב
מרוב
ישירה
קיצ
##גמר
הציבורית
למים
וזהו
##דס
בכיתה
##עק
##לקות
##port
##נלי
מאמן
לחברת
רחל
בקיץ
##צועת
בספטמבר
##ברט
אמון
##ro
עופר
שפר
אמיר
מונה
קובע
שהכי
ירידה
1d
יקרים
המשפטים
ההש
אפל
אמורה
כשהם
##ליחים
גילוי
47
שמב
##ביץ
פרג
משותף
השפה
חוף
ציוצים
עשית
דוח
##סיבה
גובה
מסחר
##ווין
בפור
הספרים
תוכניות
המתח
שכתב
מהכ
##פורמה
הגדולות
##ופיע
##וגית
מקד
לשמש
אורך
##טיקאים
##ופלים
לזהות
שטויות
##וכנות
##וגוסט
##18
קולות
##וניברסיטה
התכוו
##גנו
לבחון
זיו
להוכיח
##בנות
ההי
##are
סימנתי
##אטרון
אחות
האדמה
מרה
הכלכלה
##טוט
שתע
למז
העירייה
חמור
ניקיון
לפרסם
##זמה
זכר
עמדה
##פיו
רבע
חמו
בראשות
המקורי
יקבל
יהדות
נותנת
57
הצבאי
לגור
אדיר
הפכו
מודעות
##כותי
##בירות
##ve
##וגן
##ךךךך
פית
במלון
##ינתי
לימודים
משני
באוניברסיטת
אלוף
הרפואי
##יוך
שנקרא
פינת
שליי
יעזור
ותק
##מתם
בטור
2005
האפשר
##עתה
כנס
איכס
האחד
ומתן
למב
שנכנס
פש
שעושה
##ובלים
גבולות
יעבור
וקר
הבחירה
##ילחם
השיטה
באפריל
מטבח
יוק
##פלה
אהיה
off
##man
##וסקת
שקרה
ובכלל
האיס
ההסת
עיקר
ab
##ом
##גרו
חט
##לימות
תלמידים
למשרד
שאומרים
שאולי
נמש
דיין
##וצע
הזכויות
השיער
מקרי
הילדה
##יפורים
בסבי
לילד
חיוך
במים
הוז
##תף
##צועה
53
אופי
##יצות
##וגו
תשל
##ושב
רוד
זוכרת
העתיד
לסט
להשקיע
##למנט
##מקד
מובן
דעות
מהירה
יוא
##ופשה
##סוקה
##ממה
חשד
מציג
סרטן
פינוי
שאינה
בנובמבר
##תייש
מאסר
##קון
החס
מתגע
##ва
ללקוחות
אלבום
טק
##ואת
והיו
##от
פארק
הזכות
ספרות
הגבוה
##פיר
השניים
דתי
לשפר
לירושלים
קונה
ובלי
עמדת
מוחמד
הקדוש
מניח
##רגשות
נוף
חלקים
##😩😩
##ומנים
##אאאא
##פוני
גיר
עובדות
תגידו
מספרים
אחרון
##קעין
##יינה
##וצאת
sc
ביוני
##ננת
עוסק
##ען
עיתונאי
נפרד
הוצאות
##כמים
בשיעור
הפועלים
כמי
עיתונאים
הלאומית
##גריה
##פסה
הכלכלי
והז
היכן
your
בצרפת
תאי
הצליחו
בפרט
##שינו
52
##מלית
במוש
כו
##פכה
לרצ
בתוכנית
##מודי
יעל
www
משפחתו
##איות
##חשבות
##מיו
##ליא
מטה
נבח
##ורש
להימנע
##חחח
ובג
תפס
##ליכי
נוק
##טין
מחזיק
שיס
שיהיו
מתנות
הגבול
פרטית
ורצ
נמסר
שקיבל
##פוק
תגובות
בהרצ
ביולי
בחום
##יקס
פורים
יוצר
זוהר
##ודיעין
צמח
בקבוצה
תוקף
למלא
בוע
אנד
לחס
##ומרון
לכמה
מפגש
מאחור
##טיביות
##חתן
לאירועים
##נתם
מהלך
והט
אורח
מצבי
הבריטי
הבין
פיצה
העתיקה
מלונות
##וחי
כשל
##ment
מתג
##ان
הזהב
150
במלחמת
במדינת
המאבק
הלוח
בתום
54
##יסר
להעניק
1dil
השחקנים
שמתי
והאי
הענק
המושלם
עייפה
##ילנד
##יבא
##מהות
תחנת
גדל
מחשבות
##בטיה
הנשי
מנהלת
##סקנה
בקרה
סין
מאשימה
הדיו
ביס
בשתי
מסגרות
יגאל
חחחחחחחחחחחחח
ישיבת
בעזה
she
בהכרח
##ליהם
ינו
הכפר
ופשוט
לפל
אחיו
מעדיף
האה
מיותר
חלקם
גלעד
ככ
בפרי
סיבות
מספק
67
אפריקה
##יטים
אסי
קם
##80
לשנה
צוע
##נדס
##בדות
וחי
הפרסום
this
מגורים
דרכו
עובדה
from
##פתחו
##צלונה
ולפי
הפרטי
לגיל
מיות
נהרגו
לתאר
אוז
להשאיר
סגור
##וגע
כספים
##ks
הפיצ
לצערי
אסף
השלישית
כשיש
דעתו
##אתי
בטקס
נגרות
ואחד
שרות
מסביב
##erus
התרו
המוזיקה
לגר
המקרים
שוש
קראו
נפתח
נוט
לביצוע
נייר
בחירה
מקסים
הקרובים
בהקשר
לכת
##מוק
התה
##אלת
הנתבעים
##90
שבכל
החקירה
תורת
תובע
##אתה
מטור
מוביל
לעי
באוקטובר
##ארו
##ילומים
דופן
זיכרון
המתאי
סינ
העברי
##בטא
תיעוד
מטי
תאורה
נהר
##פואה
זהות
ויאמר
וכמו
##ברתית
##חלוקת
##קבל
לרכב
##ove
חדרי
שעושים
##ילר
all
יורד
סך
##va
רצוי
##פתור
מטרה
להסתכל
ביע
##ניתן
יט
משתנה
קשי
שפע
אולמרט
מבצעים
לעם
רגש
למט
בפרשת
שהד
##uc
##ועלת
##גוריה
הרוב
##ריל
ממליץ
##נטון
##בורת
השו
##דמן
בכירים
בחברת
שאח
64
יחי
רגשות
בקטע
המזון
ראיון
שירי
לאת
תרופות
נחת
##וסה
מטורף
##שימות
הקרובה
מתרג
הייתם
##בס
עמות
רון
גבס
ובנו
##יפו
##000
רעיונות
עוברת
מרקר
##כזב
פרנק
וכול
חולון
שאחרי
שהיתה
נכסים
מהחיים
שהר
בווא
חודשיים
כבית
אינטר
לול
##פריה
תחז
##נגטון
כיו
שלושת
החיילים
המאשימה
באופ
מצוות
נוסעים
שנאה
במגוון
##ци
##שתמש
הורה
התחבורה
לקוח
יצאה
הבאות
לשנת
שהג
הישיבה
פשי
##אבים
מלכת
הציוני
56
##פרק
##סקו
לקל
למעט
הוי
טכני
קולנוע
##תיב
רעב
נראים
אהוד
##רופ
בהתחלה
דגל
זצ
שתיקה
אחים
ההון
החרדי
מיס
שבס
מחשבה
כרטיסים
מפק
##מטי
##כוב
на
מגי
לשחרר
העיתון
לעצמך
סמי
המשיב
##כורה
תום
המדה
##ומא
שלט
נהדרת
מחלקת
##רכיבים
פותח
ערו
שוטרים
##חלף
הידע
##דיט
הפה
רישיון
לשתות
רמי
##ויד
בפס
##קרר
המוות
לממשלה
##ציר
לעזאזל
##כית
192
משבר
##בלי
המסך
הבנייה
מאבק
יהושע
סטודנטים
אוקיי
להציל
##יקות
להשתתף
מחקרים
קוריאה
הוסיף
תחומי
bon
94
שנאמר
לגל
לפלי
פירוש
מספרת
מכירות
מפעל
הספק
הפתרון
##ענות
יואב
תגידי
כרי
מעצבן
כלכליסט
הכלים
##תיבה
המקדש
שיפור
##ילדים
אופנה
##ראיין
בהע
גמ
הראל
##וסיה
פלסטיני
הקודמת
זמני
אנדר
הרצון
##בדים
נדרש
##ол
ההור
נוצר
משוב
לדוגמא
ser
במציאות
צמוד
אתרי
בסמוך
מזע
##fa
הכביש
הכוחות
##יוץ
##yat
והרי
דבריו
לנסוע
ביצע
וינ
ינג
##נפל
##פסור
ולו
שנראה
##דיף
##בנים
לדיון
אנוש
וחש
חייהם
לקרות
מפחיד
ההע
שימש
##ייייי
לאיר
באילת
מחכים
בקשת
בשפה
ברצינות
עלו
שומן
##כיל
שופט
man
מופת
מכם
ברזל
##פורים
הביטוי
המסחר
העיקרי
בכנס
לטובה
קשת
חנוכה
אהרון
משלי
עונש
##קיפה
##הם
ram
שעדיין
זוע
כיתה
עצמא
dr
מוסדות
ליק
שבאמת
##לקים
##פליקציה
מסוכן
##מיע
##ווטו
עשרים
מרים
באוגוסט
המשתמש
##old
ללמד
המלאה
ספור
לדין
##ild
קמפיין
ייצור
##alem
##וצרת
##נקה
לצומת
מחנה
בטיחות
##פסים
הראשונות
צודקת
##ها
שנמצא
חשוד
בוודאי
##וללות
##פנו
##גרס
בוחרים
לעקוב
##קיף
הצר
##דמה
מגעיל
בכניסה
##ber
צבעים
הרמב
##וננת
ובכן
מבטי
מעניינת
לבנון
##פצ
##ime
##גדול
עשויה
מתאימה
##ראל
##פרץ
##טיבה
fl
הפוסט
ידעו
שעשה
אדל
אורג
##וננים
לסמוך
יצירה
מאוח
##לטו
בפיגוע
##טש
העמק
הנוכח
##וננות
נפגע
הכללי
רלוונטי
##רונית
##ברך
##טורים
ידו
יתכן
אלכוהול
החתונה
##יעוט
סדרה
##כירת
תומך
ביוב
##te
להחליט
להכנס
סמים
למערכת
מושחת
##דושה
הרגשתי
##פגש
##ממ
חזקים
זהה
85
לכר
עלתה
##מוביץ
צייצ
לאבד
עוקבים
טועה
קישור
העסקים
עדין
##ליג
המערבי
משותפת
##ילון
שייך
##חנה
ולכל
##חילו
jerus
##אז
הכנסה
מציעים
##ולן
##ес
הקרן
למוות
גת
ניכר
טוענים
מרגישים
תיאור
למר
בריטניה
97
שתמיד
הזיכרון
מעצב
##ix
האק
דעה
lik
מרן
זוכרים
כאחד
במשטרה
הגבוהה
הבמה
החליטה
יחיד
ושר
עפר
רעה
הכתבה
רשאי
##99
בנס
הגשת
##מבל
כים
נתון
הדרי
בכלא
##זכר
סה
לארו
##israel
ללח
מאמרים
היות
##ам
התוכ
נל
##tm
ייחודי
חירום
ותע
חתול
בשדה
בדצמבר
הפלסטינית
מניות
##טיוב
בפעילות
כללית
החיס
##כתבו
מעוניינים
##טוק
קווי
ובמק
הפופול
קוראת
זוגות
##שששש
הגענו
##זיון
עצום
##ون
נפטר
לטל
##זבאללה
הרופא
שכי
אישיות
##גלו
שעשו
טורקיה
קרובות
##יימה
סמו
מיזוג
من
לזמן
הליך
לדבריו
##pt
##דיקים
יוג
##חדש
##ודעת
בעיניים
##טלר
עיו
תגיע
הקלי
##סאות
98
נגר
הוו
חלון
הרגשה
##na
jerusalem
יפות
##ink
שואה
##רדית
ag
איצ
נשבעת
אליעזר
זבל
נדיר
כלשהי
##אתילן
עכ
השולחן
בתנאי
כיפור
ריבלין
##iryat
##60
אשקלון
לוחות
##ara
זמנית
ציר
הקודש
מטרים
נוסע
בחשד
##בעון
לבעלי
חוט
good
זית
תינוק
##ברתי
שהמש
במשפט
במיטה
הבניין
##גרי
ממשיכה
ישנו
בליגה
##שנים
מופע
עכו
לקהל
בתחת
##קא
המעבר
##כנסו
התושבים
הכיבוש
תמצאו
המשחקים
תמונת
איבד
##ערבות
##רתם
פוס
יוקר
בדיון
באיזור
בגרמניה
המאמר
ספרו
##pe
דגם
תעשי
הכדורגל
סוגים
הקטנים
פונה
אמית
##ich
הקשור
הפיק
הלהקה
הצעה
שוטר
הנדל
##למו
הנכ
##זז
##מיין
במז
הקיר
##זהר
לעוד
מלווה
רוכ
מתנד
מלכה
להבטיח
##נחלים
נדל
שקרא
העות
לשינוי
קמה
משו
להוביל
אזורי
גבעת
כשע
מכות
##קבלה
באהבה
בקט
ארגוני
הצעות
##לס
##pr
והמו
הירי
פלוס
אוניברסיטת
מרחב
נהיגה
pe
##ומרת
נוז
האחריות
לממש
מוגבל
שורה
##נוני
תחילה
מודיעין
יתרון
##יאה
לבנים
מעצר
כוכ
פסטיבל
##חזק
סיכון
הערבית
לחודש
מטרות
להתאים
בלונדון
מחלות
סיוע
איילון
ולהע
ובק
הגולן
הרצליה
מסיבת
פנה
##בייש
שבהן
במרץ
sm
מתגעגעת
##ביעו
בשבתו
ותח
גיוס
בעונה
הדו
הבקשה
##טייה
לידה
קונס
אוגוסט
למרכז
ארז
רמות
יראה
##דתי
לוקחים
מבקר
נוסח
הצטרפו
המחירים
מטוס
הקפה
##בילה
היב
מספקת
בחצי
##וליטיקה
ניסיתי
##מעלה
תנ
נפשי
##פץ
הגמר
התנ
##ודרת
##ניתי
מחלה
רשמית
בדומה
##בתה
רפואה
אפק
דחוף
בצורת
road
תסת
##גין
מבחר
לפיכך
ותה
נכנסת
יניב
חכמה
באיכות
סלי
##מעו
קלים
הרוגים
הונ
האירועים
קבלו
התוצאות
האירופי
##וריית
ומז
דרוש
פרא
נכש
##ניהן
תומכים
##ביק
##ал
המשנה
זכאי
##מינות
ייק
גידול
לבק
##ודדים
הכותרת
##דשות
מסור
להרוס
##שיכו
העיצוב
##צתי
##nam
השיחה
##וכות
רמה
אלפים
תקף
העולמי
מעוניין
ערים
הגורם
ליאור
הדרו
##פין
הפיד
##געים
נגדו
בסעיף
שתק
היקר
jew
מתאר
דוגמה
##ביי
פרסם
לרמת
##סדות
לערוך
עבירות
bo
##osh
רכש
##חיית
החברתית
תוכנה
מישראל
אנט
מכיל
##מצם
##ידך
סטר
ומט
##מלצות
בנתניה
##חדות
באוויר
ההד
ערי
הזמנים
ראית
קיבוץ
נסגר
58
הודיעה
##ייבות
הביקורת
תחבורה
חפץ
מוחלט
שעון
והיום
רחובות
##נאביס
מהות
השע
ספרד
לרשת
##דמנויות
##40
##ين
הקבוע
השקעות
האדום
##כוך
ערה
חיוב
תיש
##ction
##סיקה
לצלם
בגובה
נפגש
ואר
סיכום
##we
לצחוק
##כללת
##רגשה
שלד
##לקט
##חתו
שרוב
המנהל
הקצ
דיל
2003
לתיק
הקורס
לפתור
##ron
הכספים
המספר
הצלחתי
מקצועיים
##לאם
##ביעית
להחזיק
##וננו
שפות
הופכת
שדי
מסיבות
שרים
כוכבים
##פלגות
תלמידי
##ts
השינוי
מצבו
ברע
להילחם
##כנסות
לגן
מילוי
באלוהים
המטה
מצאו
ערכים
##ניעת
##טיביים
##פאה
פוגע
ריה
לחברות
חסרי
##ign
יושבים
רשימה
הכלל
ארוכות
השחקן
מיקום
##וויץ
מקומית
ריט
ואנו
em
שהוק
##חינת
##דרו
##חלטות
בעלה
אשראי
פופול
##ail
בפל
כלבים
לוודא
שהגיעו
##מוג
ובד
##דרכה
לתקופה
פינה
הרווח
בסדרה
##ושבי
ענקית
##נסון
להגיב
##חשבה
##סא
##חשבו
מדויק
ואומר
זל
להמ
האמנות
##ang
##ניר
האמור
הגבר
החליטו
וכדומה
הסרטון
העסקה
##כירו
הנכונה
שתיים
רז
עייף
מודע
##שתתפות
##נחלויות
הקולנוע
הבנה
מצליחים
דנה
##נסיון
תפקידו
מסויי
האחים
המחנה
גאון
בטיפול
מאמץ
הטעם
שבעה
##oll
כמוני
לשלום
כוע
מתים
להשפיע
##יימות
מרשים
עייפות
אהוב
הטענה
צרכ
יצאתי
מערי
תעודת
##מצים
ילי
חנויות
עליהן
קצין
מאוהבת
##פאים
hd
##מפריה
אלקטרוני
ייס
מטרת
##וראים
ספיר
בטרם
דיור
תושבים
דינ
##ישוב
האומ
האמריקאית
דגש
##ציבור
צנרת
##וזרים
הפייסבוק
מהכל
77
לאה
##ps
בקריית
ממוש
בחנות
##בדוק
האות
הגיל
##מיון
מומחים
נעימה
עוף
ומקצוע
שלל
הצפון
##ולוגיים
עצמנו
הרשימה
מדריך
שאלתי
לעסוק
##פילה
בנאדם
בקרית
עשויים
##שאי
הנדר
משפטים
ye
##משה
החשוב
אא
באות
בזק
בלשון
שסי
השינה
שכחתי
אמריקאי
נוי
בסביבה
##דרגות
##ba
##פאת
גופי
מבטיח
מסל
יעיל
לסבול
##מליים
להקת
למידה
קרים
שאומר
הפוליטית
##חזר
מסוכ
המבוס
גברי
ביח
לפק
במוע
מאושר
##טק
איננה
הלימוד
ברירה
איטליה
לרכי
אוכלים
ברדיו
##סקות
הגליל
אכלתי
הצעירים
חולצה
יציר
##פגנה
לפועל
גבע
##sp
הרכי
כור
באורח
לפרק
קובי
תעשו
😂😂😂😂😂
להעריך
אחורה
רכישת
##זיות
כניסת
הליכה
המסת
האיחוד
##ימים
ben
בעיתון
הפיל
נאשמים
מערך
##ار
do
בחירת
היהדות
הרגליים
ערן
##דיחה
התגובה
שווים
אוהד
החלל
לייק
שיטות
##ירור
##צרי
דומים
המסע
הארו
התינוק
לעצמם
התובעים
##יסוק
##de
באחת
מייל
דמויות
אדומים
##בטחה
צא
ההודעה
##ds
האנטי
יונה
המשיבה
בקושי
באול
##ונלד
בשורה
השעות
נועד
##בדת
תוא
קצי
מגניב
עסקי
בתורה
כשמ
גיי
##בהיר
להמשך
שהז
##יקף
היועץ
##יתונים
גג
האנרגיה
##ens
בשידור
נתנו
התאונה
השער
בפברואר
לכאן
##לוח
ומפ
לשכנע
מכונות
##ед
קטי
כרטיסי
ואינו
עלולה
##דורה
ראשוני
הפסקת
באשדוד
למתן
גרעי
חלונות
מדד
יחזור
בתחומי
הסע
נענע
מוכרים
##זיאון
הגברים
ונפ
מצויין
##כלול
רגעים
תוצאה
ושות
נווה
טיפים
اسراييل
בתחרות
תמו
לבת
השכר
באוטובוס
ופע
##אליק
##ישון
דתיים
הביאו
חופשה
##סן
חסרת
כתובת
לכנסת
אונס
הנהג
##רוח
בבניין
ואה
עמיד
הממל
המוג
אגף
למנה
חמה
##נאל
מהצד
##שמיות
המיני
המתאים
החיל
עצמאי
ואפשר
מגל
##יקי
מוצאים
##ליית
##ick
##לקי
##שיה
##ינות
בגדול
66
אכז
יכולתי
למכירה
השאלות
בינינו
והכי
תנאים
לונדון
דרג
הדירות
קונים
פנו
הוראה
##פסות
##רויות
צעירה
שבג
הליגה
##טאות
##דיקות
תאריך
האנושי
רחבי
##ראק
##וחרים
בקצב
זהבי
##ous
פרויקטים
ביתו
##פירה
השראה
מסוב
מוטי
מבחינתי
שאסור
##געגעתי
התס
משפחתי
##לייה
##abb
פנ
חחחחחחחח
מעורב
רחבה
בשימוש
לסדר
הופכים
לדון
הפוט
השירותים
##קרון
לחקור
ערבית
מבוסס
פיו
##ral
##טחי
הצליחה
הפלא
העובד
מהירות
המשיח
הנג
ונראה
קריית
המוקד
סמס
##ברון
להשלים
נגיד
גוט
מזו
that
בעין
##יליסט
עבירה
גירוש
ממתי
מיה
שיטה
הידוע
לפגוש
במסע
fb
טעויות
בעיצוב
קטגוריה
מבזק
שרוצים
##אנו
להנ
רץ
במשק
בחק
רגילה
##אתם
לטר
הרבים
מרכזית
שלק
השגר
חלל
בארגון
רמ
פלילי
u05e
ויט
כף
שלייי
רעננה
לשוק
הרביעי
##גשים
וכאשר
הנוכחית
דרור
ומל
des
צבוע
אמין
תשכ
ליב
88
ואחרים
כרגיל
אשכנזי
נעליים
לעסקים
טיפה
גזר
##צהיר
פופ
##לינו
##wa
ונות
והשי
אומנות
שהוג
##יתת
הכאב
החשובים
הנזק
הרחב
##פולים
##פסיד
שותף
הסטודנטים
חתונה
##ולית
ברוח
חשק
העמ
ומשת
##אתו
עיצ
התחרות
המסורת
68
ובסוף
משרדי
וקי
נשר
##day
נדב
קניתי
כפול
סגנון
בגודל
מפרי
##צאי
##ידוד
המשיך
##ינת
הכלב
##שמי
נוכח
ראינו
##ליפות
אצלו
פעילויות
במדינות
הבעיות
ושירות
סמכות
המין
היעד
##ירן
הבכיר
בטלוויזיה
יבנה
##גועים
תיאטרון
##צלמה
כתבי
##ואיד
בגוגל
בעמוד
הבנים
בציבור
בנושאים
אסטרטג
טווח
כבן
באג
להורים
נמל
אחוזים
מלמד
שלג
דעתי
##בדיל
אזריה
##ריטניה
59
הזוי
אלטרנטי
התרח
לבסוף
במדבר
שתד
האזרחים
עקיבא
הרשמי
האמיתית
##גינה
play
בירה
##נראה
נסיון
המשתת
שלישית
למלחמה
##ויזיה
af
שחלק
להפעיל
הלידה
בלעד
אויר
##קנות
למועד
דיסק
##ריזה
אופציה
הכוללת
התז
השופטים
ביתר
xxx
בתאו
ולקבל
נער
שומעת
חוקים
מכונת
מוזיק
נהנה
הרס
##ופרים
שופטים
ממוק
##ידר
ירקות
לחר
ויכול
##24
מוסיקה
החלום
מנהלי
אביזרים
הפרשה
דע
##שמו
לתא
דוחה
תכונות
גילו
הטכנולוגיה
אמורים
הלל
love
##ния
הופעה
תביא
פצועים
הסופר
##ake
איפור
##ning
סיים
המורים
לתמוך
מדעי
##ובא
משיח
השקעה
לברוח
המחשבה
##ana
##ידאו
היישוב
עבודתו
לרוץ
צפויה
##צן
##בוי
##געתי
ירון
##arm
הכללית
הדתית
הזמנה
לתפוס
לפיה
הוט
תבוא
פנימי
41
שישה
##ערת
הרצל
##מעשה
מנהלים
об
סיבוב
פוטין
הרה
הניסיון
התחילו
הפחד
בטוחים
her
הוות
מתכנ
רפואית
סובלת
מרע
היסוד
במבצע
בחולון
אבטחה
תשתיות
העיקרית
ההק
לאומית
##ירוץ
ליווי
##כמת
ומעלה
חלה
הפסקה
פגישה
יעשו
זמין
מתכון
מגר
השליטה
##23
הרמה
עמיר
נציגי
קפי
הפלסטיני
מתרח
##her
##ולמו
##מוצע
מרץ
חמים
##מחירון
החוב
שיב
ציור
לפעילות
##מטרים
##פוח
##ire
מונו
ביאליק
##ראמפ
שאה
##ומרי
ויח
##שימים
סרטי
במרחק
##ליי
ישנים
בדירה
91
##ננות
##טחוני
גלא
וחיפוי
##טדיון
הדג
לוין
לעת
##יצים
מודל
ליט
##פלגת
בחורף
החשוד
מנשה
למשפחה
לקידום
הכנה
בבור
93
התנאים
min
המכשיר
גמי
שמירה
לאיש
בהיות
הודעת
נכנסים
##יסה
מעורר
השלב
אליכם
מאוב
במאמר
##וזות
שנערך
שיג
בדברים
הכנס
הדיור
מורים
תקוה
ציפי
250
השתמש
גשר
מנוע
מגיל
בהלם
מנק
מצה
רעש
מסוגלת
##עימות
חתיך
אוסף
לנצל
##מריקה
##יסוי
##צעד
##גבניות
##שיבת
##ла
המועדון
עציון
ליהודים
##ולט
##ביעי
ארגונים
במלחמה
69
לאמא
צורה
הידיים
##איר
הופעות
הדתי
##רכיון
שנס
51
לקבוצה
המקומי
בצע
אליפות
הביניים
זכו
עזבו
מסיבה
פניו
##גורר
##ודנט
סכין
המקרה
הגאון
##נטינה
קיימות
חוקרים
לכו
כלכך
הפנימי
##וציאלי
יהי
##פנה
דרכי
מיליוני
לנתניהו
##ידי
מכוניות
ארצה
מצטער
חלומות
##נגר
הרצח
הכרח
שהכ
2002
מסורת
חינו
עזוב
##פטים
מפלגה
האמריקני
הרמטכ
str
##פשים
לחגוג
##וויט
לחיי
ורב
הקיבוץ
הגן
ביצים
##בקות
ארדן
##יקרו
יכ
תמשיך
cr
ווע
אינד
צופה
##ררר
##קני
כרמל
יוחנן
המראה
העתי
בתשלום
לטענת
##מולה
נמשך
עצמכם
מכירת
מוכרת
המתק
##שרון
מרתק
הטכנ
קח
אפרים
##יצונית
אלק
are
##שמת
ראיות
בהשוואה
שפירא
ואולם
בוי
כג
הערך
שתש
פתיחה
הצרפת
בחרו
בפיד
ישנן
להפרי
והול
הממשל
##כרונות
##מליץ
המקצועי
משלוח
ממשל
דגים
מסמך
שאינ
ביטן
##עדכן
הצהריים
אופטי
בשעת
הציונות
צהריים
##שראי
קניון
אדר
##יית
נתקל
##יהיה
רמון
משלם
##מאה
אלמנטים
##וויית
המחלה
בודד
איום
מחוי
ויב
##פויות
למספר
לכולנו
נדבר
ללבוש
מקובל
בתאריך
##נגליה
הצו
להצלחה
מטרי
ישע
והרבה
ודאי
ירדן
דודו
ואכן
מתברר
הבנת
נוחה
##סטין
הנשק
##ףףףף
במקור
העלייה
ההול
דינו
##צק
##וחד
63
שנתי
##טליה
שהוצ
וראש
הסיכון
הנש
יחזק
השות
הקלה
##טווח
מוסיפים
עברתי
המכונה
שיפוץ
וגר
היותר
מטען
כמוה
##כוני
לומד
ליצירת
להתעלם
שעד
שומעים
##טרית
##מצב
gre
ההפר
הסוב
תני
הקיצוני
##באס
דוגמא
vi
מביך
הנהלת
שיז
המסלול
קחו
מארח
נערך
המערער
יגיד
ניסו
מהט
##פיין
בנסיבות
##לקס
שהתק
הוספתי
התנהלות
אחרונה
ההלכה
אומץ
מסעדות
האדמו
הבנקים
מפריע
אלדד
האוניברסיטה
מובה
ממליצה
דוקטור
שואלת
##יקור
נרא
הסיבות
בסיום
##ics
##חקו
הערכה
תכלס
##כליים
##ובסקי
##יתרון
אחדות
##ona
הרים
היסטורי
##be
לאזור
מעשי
מעניינים
מתאימים
טרו
לחזק
נתוני
טיסות
פועלת
מורכבת
##רתי
תופעה
מוסיף
met
משלמים
התוכן
הבור
מתחם
##ההההה
החלפת
עמק
ארונות
פשע
##פיסה
עות
sy
שואלים
לאישה
כדוג
מוני
mus
תשובות
בדקה
לשבוע
הטיול
סמל
גוד
מועמד
זא
להקמת
המחלקה
##חתת
שמנה
##פיקה
##ree
שבט
אישר
ונח
התקציב
##חשבים
להופיע
והשק
jaf
##זהרה
לשלוט
בשילוב
סני
##ומני
הקיים
פון
יסת
לתרום
מהל
נשבע
החומרים
ריהוט
התנגדות
1000
אהובה
כותבת
אוכלת
##נטל
דואר
##דרגה
תו
בסיפור
מייס
בלש
שעשיתי
ושאר
בחצר
המשבר
ביתי
טיע
עיסוק
er
##לונים
צביעה
במשקל
כלה
##פיינים
אפי
לשדר
ארצי
רטווטו
דמעות
המבחן
ממק
בטן
##נום
##שתם
סופית
##ברמן
מיקי
מנדטים
נודע
מביאה
הדמוקר
אירועי
cont
בכת
190
תביעות
kiryat
בתכנית
##כנתא
israeli
mar
מליון
נוחות
##يت
2001
קמתי
גדעון
הראשית
המו
נעלם
בוגר
eng
נועם
נאמן
התגעגעתי
##לונן
נמר
הדמוקרטיה
דיני
##פונית
ששת
בניסיון
##פעול
שחיתות
באב
ספטמבר
ודר
מוסד
סיטי
זקוקים
לפרסום
לגוף
ומתח
ייא
שלאחר
מאגר
ההצלחה
הסיכוי
תינוקות
בדיחה
##ets
ליח
סיור
הבטן
##מוח
fe
וכת
ומאז
מתנגד
##סטיקה
הקבוצות
##ופין
הרלוו
dis
##מיטה
ההסתדרות
חיובי
בכירה
קנה
##בחין
באוניברסיטה
צלם
הבעלים
הקלא
כותבים
טכנולוגיה
חשיפה
נוכחות
בשלי
בהי
תפילה
החום
הסרטים
הפוליטי
72
##פשט
##זבז
בטבע
התאגיד
ובהת
העץ
דרישות
קטל
התחז
מותק
והבי
לגבעת
קודש
##בבבב
מינה
אוטומטית
ינואר
🇮🇱
נלח
מתלב
##דג
תהיו
הישן
בכיכר
##גובות
מגנטים
נאום
הובלות
אוהדי
לערב
איחוד
##ריהם
##פנות
שיגיע
המטוס
מוא
תראי
להתב
הגורמים
בהרצליה
עמותת
מפח
אשם
מטומטם
נדה
מיצ
עונת
##מניות
##ile
הירדן
##70
שוו
jaffa
המשותף
נאות
##אתר
להגדיל
האיט
##שוות
אריק
וכולם
##סיבת
באתי
דיפ
##רכן
נטו
מעריך
מתכת
לגיטי
##פסל
##еи
סלט
##נהלה
הוכחה
הקואליציה
התפר
אינני
שחשוב
אוטו
נשימה
מצלמות
לקול
שמאפשר
##בלבל
לשבור
##כשירים
ובמיוחד
נעצרו
##כיים
##מינג
בשכונת
התחילה
שמור
הגרעין
גיליתי
בוק
##ame
קלינטון
האישית
האוה
מרוצה
יצירות
שישראל
יקבלו
הפסד
pal
ייר
הפרדה
לדברים
##ירוג
עוקב
##ייתי
הוקמה
בתמונות
לפה
בשיחה
יימס
##עס
בסין
מסוגלים
##ליפה
לפיתוח
##והו
##טרכו
גורמת
היצירה
res
בעצמי
האשה
ההצעה
##רוויח
דרושים
##גדות
אתיו
הדוג
קשרים
96
##יסא
להעמיד
ави
עמודים
התכנון
גביע
בעבוד
להיום
מתמחה
הכלכלית
מתנג
האמצ
בממשלה
חופשית
##צבים
חיילי
pre
כאבי
אירוח
עלולים
באנשים
כשש
בצהריים
##טיחות
שנעשה
מרט
לנשי
##גלי
טיולים
בחל
למחוק
אסד
רושם
##ock
מתגעגע
למסע
ייחודית
ציפור
##son
הגלי
76
למשהו
כוללים
למנות
##ונר
out
##named
הנגב
##נקו
סכנה
הומור
יחידת
שביצע
##ולח
##ילך
הדרכים
פומ
ההשפ
שנצ
זקוק
##נדו
חייה
והל
ויז
הניתוח
הגזע
##🇮🇱
73
##יסטור
##וטף
פנימה
הצט
רישום
##ליב
יושבת
##חדשות
מכוערת
קלות
##נתר
שלע
נדרשים
##וצמה
##נוג
##ופרת
יציאה
##סמו
##נסייה
כתיבה
כולן
משרה
הצבאית
##יבו
##ובו
במחירים
ac
סלע
ביקר
##בקים
לחסוך
##ץץ
היופי
לענייני
והאם
##דיאל
בפריז
המשתתפים
לשרת
חרדי
בתחומים
עצמאות
יורו
לחתונה
המצו
סניף
הסתה
ושני
הרשויות
בתשובה
גבינה
can
צחוק
תבניות
משך
הירוק
בוס
😂😂😂😂
הפסק
מציי
וערבים
היקף
ולפעמים
##בורי
ענה
בגי
unnamed
##דיר
##קעות
תקין
תמצ
המניות
בכבוד
##ננו
##out
פעל
תקבל
##כחות
600
שליייי
קסם
ציין
יעד
הנוגע
ever
ללה
חסד
חשיבה
הכרמל
בונה
איני
##קרן
שהיום
במרחב
רצו
חובות
כעבור
הגשם
##פסו
לית
מבוק
הדרום
הפתיחה
שוברים
יונתן
המטבח
בנצרת
##רגו
בעיניי
##יאות
לעצמה
עסקה
בדרכים
800
להרים
##ודאות
מביאים
בתוכו
ולראות
שוחד
##בחים
שתר
השחור
גיד
המסר
##1d
יועץ
מכוער
כיסוי
לאש
וצריך
ин
איציק
נמשיך
79
##מלים
לבנה
המשותפת
ברמות
התשלום
שיעורי
ספא
חיבוק
נוכחים
ברגל
##סטל
הבחור
מחאה
86
bar
פרופסור
האשראי
מסתכל
קצה
##וניברסיטת
להצליח
הניס
##לילים
רגליים
##חקרים
אסון
השומר
ובית
בתו
הצרפתי
נמצאו
אופיר
##ריא
תחנות
תיירות
##לולר
שמז
מובילה
עיבוד
##רוף
שכזה
הוקם
המבקשים
##ייבים
התעשייה
מולי
שטיחים
##כניות
הסכי
ארוכים
הגרמני
##rac
ממקום
##ליכה
רפי
ראובן
בקיבוץ
פורנו
בהריון
להקל
הקרובות
דוגמאות
##רבי
והמת
העלה
סומ
ונד
בידוד
חברון
דיוק
אדוני
נסת
ברכבת
הישר
שנועד
כאבים
כשת
דפוס
##סטינים
than
##ير
השלט
##כתו
מתקדם
וגד
בהז
##iy
##קשן
להגדיר
חזרתי
העולמית
מייצג
78
שותפים
הבתים
סלק
איכותיים
פטור
גבוהות
חו
שמחים
תדע
##фо
גדי
המחאה
לטיול
טוענת
מפתי
ירח
מקומי
במדי
אהרן
בתה
עודד
תוהה
##זרע
##נוא
тель
הסג
במתחם
תופעות
העונש
הציוצים
##ידון
המקומות
חתם
##גישים
בכוונה
המוכר
סיימתי
החוקרים
הינם
בביצוע
תזונה
בשיר
הטובות
page
##רכזי
קורות
אישיים
גדר
לאיזה
##כותית
בעיית
##סין
עמנו
האמונה
##ממת
גרסת
צהוב
לדחות
רועי
##צעה
גגות
הרחוב
עמוקה
קניות
האויב
לינק
לנושא
אוקטובר
ומור
מבול
להצט
שדר
beit
מיוחדות
בטחון
להקשיב
בשישי
לעתיד
##מתה
##ala
מאפשרים
ותיק
למל
62
הסל
per
המחבלים
##ידוע
האוכלוסייה
לחק
##דהות
הפא
ממל
##והי
פרטיות
נובמבר
נרחב
מבפנים
המנ
##iting
קרח
נניח
וחס
##int
נבד
הקיב
inter
לייב
התמיכה
##ליטים
הייח
אסתר
לשאלה
שקשה
##צפר
##נתק
מאנשים
##גיעות
המתנה
##iel
##מרא
יגיעו
##ult
##כויים
הרצפה
מוסלמים
##דווקא
חטא
gr
הכרה
צורת
גו
כאל
הספיק
אוטומטי
##פיס
שאן
כמש
התייש
##בונות
עליון
##בילת
אפר
##וציה
שאלו
##ערובת
מתמטיקה
קשורה
מספקים
##מעתי
הקי
פיצוי
ליגת
פיקוח
במועדון
קולה
##מוט
עזרא
הכוכבים
הטקסט
נשלח
שוויון
בטוב
שטוב
##era
והופ
פאקינג
החלב
##סטן
בעבור
הגור
לצפייה
ביקשתי
כצ
##ביאים
נזכר
שנח
לחשוף
74
כביסה
תעשיית
רבנים
טופ
וחר
דאגה
רגילים
רובם
##ifa
חדרה
הבעל
בינלאומי
בעני
ידידות
אעשה
ימשיך
חתיכת
##סטיות
op
חלילה
נולדה
איילת
להסיר
רמז
##מיאל
באליפות
##וטות
נרצ
החברתיות
авив
יאלה
מחייב
לביקור
לאזרח
הסביר
##חידי
sch
קריאת
הקלטות
הביקור
חשודים
##ود
רם
התואר
ev
פן
מרכ
##כיות
שולחת
אבני
אייפון
מפגינים
הומו
המיטה
netan
82
אלג
fri
לברר
מבוגרים
גופים
דודי
2019
##כהן
וממ
##כנסת
מחבר
גמור
לסיום
בתולדות
הבדיקה
##ox
מחצית
מייצ
##ем
הנכס
מיט
המית
סוס
טכנולוגיות
בכלי
##ood
חלוקת
מאחל
סטנדר
לאופ
ושונות
דבש
אצלך
פוטנציאל
הערים
המאמן
מחד
הרווחה
dec
##וצאפ
הקמפיין
המלצה
##גית
##ро
מידת
סדנאות
הנבחרת
מפסיק
שאלת
הביאה
טיפולים
לשאת
הלכת
נכס
בשער
גרסה
##מצום
יתק
##😻😻
##תימה
השיווק
מתקדמים
צדיק
המבצע
מובילים
israelis
яф
כבש
##😍😍😍😍
שחל
פלפל
שחרור
89
לשום
כיבוש
הדמויות
סימני
##פוף
עמדות
לשתי
בשלום
בדף
מוזיאון
##נטרי
אחז
בינה
הוחלט
הנור
הדוק
##ors
מינו
ואשר
תלת
מקיף
gl
הדגל
שערי
##אמר
##מכות
לימים
##קית
##כיה
מסכן
בדם
מיכלי
##מעה
ואלה
פורום
סיס
אייר
בסרטון
ישיבות
הפשוט
הסכום
בידיים
ביהמ
ולר
לרצות
בכיוון
יאו
זג
##מודדים
לנד
אנושי
יבש
בהש
##וריהם
אלהים
מדרגות
מכונית
הצופים
##לוות
בבעלות
92
בחת
ערכ
התייחסות
הרבנים
האורחים
ותת
##פסד
##זבים
מזגן
דורון
אלכסנדר
sup
הציע
אשכרה
אוסטר
ולהיות
яффо
##ля
שירת
הקונס
מהנה
##וגני
התור
חברתיים
מיקרו
##ריף
הקריירה
לתחום
משרת
לאחור
תחקיר
מרוצים
מלפני
קהילת
מסתובב
לחו
רעות
לאחרים
לאשר
הזדמנויות
מהאי
פלט
##ופף
שאפילו
day
זרה
בקטג
השתנה
צוק
##גוריות
דיווחים
שיקול
אווירה
מפנק
נפצעו
חלקה
המהפכה
##מתין
בחלל
הופיע
##ог
שתפו
נשכח
##עורים
אישרה
ההיא
להתקשר
סטרי
מחו
וילה
כוונה
##שיטים
כוא
למשטרה
בעידן
##יסים
העיתונאים
המוני
##גתי
אמנון
לאב
במשפחה
הפיר
##פולי
לאסוף
ילך
מלק
במילה
יתן
##שלנות
לאס
בקו
##ory
לרע
ולמרות
##סיקו
בבסיס
האישום
יביא
xxxxx
הדיגי
טיפולי
מיידי
##ורט
מעדיפה
מרחוק
##טואציה
שפעם
דומ
##זוב
צב
במצרים
לכלא
דצמבר
עומס
##ודעים
הכותל
מהמח
למציאות
מוזמן
הפעלה
מינוי
שאוכל
לחיל
רן
##טיבציה
במובן
העק
האוטובוס
פסולת
##55
##ריפה
לנשיא
##ру
##alom
במחנה
חריף
תומר
##ושך
בנושאי
מצויי
פעילים
##צנו
##מצאת
שקראתי
יוצרת
לפרי
פרקים
היטלר
פונק
העבודות
gu
קים
לוו
החוויה
קצרים
בשכונה
האנושות
טס
שבל
מתמיד
כרם
##מנתי
בחייו
##ont
המפגש
עצמאית
##נטו
התברר
חית
שהור
קשורים
הדרכה
החמאס
מסגרת
רעבה
לבתי
בתוספת
סגירת
מיטב
##מחות
זכרו
הרומ
פנט
זולים
##מטית
תכניות
מסעדה
בטענה
יעלון
מתוקה
האול
##יפדיה
##פכו
המערבית
נחשבת
המדו
בקלי
##כיתי
והמע
פולין
התקשר
חזה
##זמים
##פוג
##אליים
מעורבות
משתתפים
##ug
ין
##88
##מונית
המכון
מצפון
מהמק
מכונה
התחנה
לילות
מתווה
הבינו
למסקנה
##ניע
##ren
הרפוא
החייב
ענת
##פועל
משפטית
החרדית
לניהול
פייק
ולעשות
גרא
מתחילת
תקבלו
להנות
שעברו
לוחמי
הכשרה
העצמי
ומנה
קבלן
ליין
שמשת
הטרי
רוי
אתו
חמודה
##orn
##на
הקשורים
בגב
קמח
עקרונות
הרוסי
##מאן
חוצ
והחל
אחמד
שאמרתי
במטבח
לפניו
ash
לקחו
hol
84
##קלחת
עשינו
אפשרית
##ובליק
חוגגים
##33
היחידי
הערה
##ולימפי
חברתיות
שיעורים
המותג
הזמנת
רצינית
##vi
מפרס
כשזה
קיבלנו
ידועה
##מכת
int
מחלוקת
מושב
קרם
פגע
##וויון
##עוץ
פרש
כותרת
בירת
##ערות
חמורה
##וסופיה
בענף
תעופה
וניתן
##תיחת
נהנים
ed
##ات
אשכול
המזרחי
המרה
אגו
רופאים
דמוקרטיה
ניח
לנהוג
##צועות
הבינלאומית
אוצר
##ינד
התנגד
צבאית
האופוזיציה
להבדיל
##де
טרח
עצים
חובת
##בינה
השחיתות
בדוק
##ינוס
רס
ההיסט
המפתח
אמנים
למניעת
מוצאת
משכ
will
חברו
סמך
לראשות
##ows
לעיצוב
בכות
חודשי
יתרונות
פיזית
##קרקעין
##כרז
##דיקת
אותכם
נופל
נטען
פרשנות
פורט
ראויה
שרצ
נופש
לגיטימי
מעכשיו
בשאלה
הכהן
הכירו
##🎉🎉
##שיפת
לאלה
עזב
שמסת
מטומטמת
עצמן
יבין
ישב
קאר
בשמחה
פו
##נדבות
שכש
חלקית
טבעית
מועמדות
##עימים
האייפון
קושי
האינט
חזון
תחנה
הוצאה
נייד
עציר
##רוכות
##טרינג
פסיכיא
זונות
מגני
לאותו
חיזוק
בתנאים
יוס
##כמות
##להבות
באולם
hot
הקבלה
כתבות
לחוות
השוטרים
##מאלי
התחושה
שעת
שהוב
פתוחה
משתנים
התחתון
נאלץ
ניצח
הבירה
מאליו
מוחלטת
##גריות
##יצב
והמח
לנקות
לחייך
תלויה
העמותה
לגברים
משלה
לתקשורת
הלכו
וקט
الم
המועצות
מיוע
700
הסכמה
art
להשוות
##שורים
לחברי
אתגר
המשיבים
ויפה
המלכה
מחק
חלש
##חיות
הרפואה
ההזדמנות
נצרת
קומות
##בחרו
תכנים
הממוצע
הנאה
האקס
הקישור
בחינוך
הארוך
##derot
צפייה
בודדים
רשויות
והפר
מתנ
סתיו
מטבע
כק
ממילא
ובצ
עצבנית
##itz
##אלים
##ия
מנצח
הזמר
ובן
יומי
מזמין
צחק
נשבר
תרצו
##מנם
אורחים
החברתי
מסויים
החשבון
בוצ
שחס
האהוב
שכתבתי
##pa
054
כיון
מדור
##ולק
להרג
מעקב
##שרדי
אפריל
חיפוי
לצבא
מלאים
התכוונתי
שים
רכבים
כתבו
הריון
##חף
קבלה
יוון
שנשאר
בארי
##ונא
מצומת
המשטר
##003
בסיסי
##les
##77
פרידמן
הנר
##לתם
ממוצע
לפלייליסט
סבלנות
##צול
תצא
שיחת
אמה
##צרית
פיקוד
בהור
ראיה
##ert
חניה
##ова
ליצמן
לטווח
לוד
הפצ
בוחר
מייד
כמת
הטקס
יצליח
רכוש
##וחת
ואחת
##רף
שביבי
##ניית
יופ
פליטים
במגזר
המזל
סו
הבכורה
##ff
מתקן
##טרו
##בינט
דתית
לחצו
נובע
פרופיל
השקט
שהשת
##ام
הבט
ובמה
חולי
##רתו
ומאפשר
השכל
##לבליט
הצטרף
##סיסי
השתתפו
למסור
חידוש
אחסון
##נאדם
חיובית
##עית
גינון
לרג
##יינתי
##קנים
המנוח
השעון
תאונת
שנתניהו
בדרי
מבוססת
דשא
שלומי
חושף
פז
מורשת
לשיפור
בזמנו
##ee
##ניש
תחליף
ענף
השכרת
אכל
##ings
בשטחים
שחקני
השתתפות
עבורו
##ראינה
מרא
העיתונות
##לכו
##לוץ
הלחץ
##קיע
##oy
העובדות
המעור
וור
למשפחות
##לתו
##המ
דיבור
בקל
באינסטגרם
מנגנון
##סמה
פנס
האומה
##פקט
קולק
למשפחת
ברשתות
פינו
חטיבת
נכונות
##כניון
הכנסות
##מימות
פיג
למחרת
לזרוק
מוגנים
כרא
סטטי
##כומים
מעליות
##יחוד
ספות
##ore
##ובדות
up
חשבונות
##להב
נופ
ציבוריים
1999
חוקית
משטר
מדווח
בחברות
התיירות
תעלה
וההת
לבריאות
מכשירי
בחדשות
קולי
מייקל
##פעלה
נחשף
המפורס
sderot
מתכ
##עוד
עימות
ומתי
##ןןן
##סיכול
עגבניות
ובאי
##ובדת
##חלטת
צופים
ציוני
ביקשה
המיל
##ציץ
med
המבט
אינטרס
אביה
office
מוספים
##שול
##מוץ
עשור
##ימות
הנשמה
האגודה
##esh
ההרגשה
אורז
ра
מיועד
ופתאום
##גלגל
אורלי
##פגנות
צינור
שמורות
השכונה
בחודשים
מימין
בהיקף
המקורית
החולה
##ational
##ement
נפט
##ase
רומן
##ري
בענייני
ביטון
יתקיים
ст
##נדים
השמים
משקיעים
תרגיל
שאוהב
##ical
נחושת
##la
אבק
המצוי
לצה
תשתית
ברשימת
נכסי
ורדי
##סתם
ורע
קדוש
הפיתוח
לעובדים
ריאל
הפגיעה
תרי
שיכולים
גלובס
כתבת
דולרים
היצר
inc
שפשוט
##כט
ובעלי
איגוד
##טלציה
האסטר
##דרון
##דורים
איכשהו
##מצן
just
ימות
##קרית
משפיע
להתקיים
אצבע
פתחו
פוש
נוהג
דיכאון
לתיקון
##תיימה
האופנה
המאוח
כדין
כביכול
לתואר
להגנת
לטעון
מצבים
משרדים
ומנו
להבחין
נוגע
קובץ
ak
##חוף
לנכים
ניצחה
המודעות
col
היין
עצומה
ווינט
המדיניות
וידי
בתאונת
##משק
סלא
ריכוז
מזעזע
זכרון
ניצול
להיו
הפקת
##ונך
הצילום
אשתי
יעוץ
##פוטי
ורח
הגיוס
##eck
##רוצים
בסדרת
מאיה
ולתת
ועדה
במאבק
ובהם
במחשב
מינימום
הבטחון
זיל
עיון
##טוקול
במעמד
mat
pol
##ךךך
אוסט
סלב
חמד
המופע
כבל
בחופש
מלכות
##ence
##ump
בקבוצת
אנר
ובעולם
##ונדי
קיס
##כף
הדף
יכלו
להורג
בהסכם
המובילים
כדורסל
בחוף
##ныи
הפרקליטות
עס
לשדה
לער
car
ברגעים
מציגה
הדמות
פעילי
לכלל
שהאי
הסד
מציין
ובעל
נבנה
רחמים
ומשם
שמתח
השיניים
אחראית
האפליקציה
##וליאתילן
##כלל
פד
##66
תשי
##ריחה
לאחת
מילא
רוברט
העצבים
בבח
שידע
##ос
והפעם
##וטית
היומי
השרים
ואנשים
heb
##מרק
נאה
רעים
לבאר
61
אפליקציה
בגדר
המסור
להסכם
הפינ
##פולה
הפתעה
##זא
שעליו
קלאסי
לביבי
מוקדמת
באחריות
שהשי
קילו
מזהה
##טרסים
בסלון
ההחלטות
גפן
83
נובל
ריס
מאושרת
מצביע
לחדש
ויום
##בלט
ששר
ארט
להסתיר
פרקט
מעקות
נוא
למקומות
סופי
##act
וכעת
יורם
לזכויות
לשמאל
התעל
רפאל
##oh
##هم
מסיי
יחידה
##ציונ
דורשת
##נוקות
ערעור
בילוי
המוביל
הסול
עדויות
הלוי
מוסרי
child
התגובות
נשארו
ציונה
##اب
לצור
מקצועיות
מגיב
סובלים
ברצלונה
החיי
נזכרתי
לבחירת
##ילוץ
מדיני
לארה
הידיעה
##חזיק
שהולך
להרחיב
משמר
##סימה
תקצי
להיפגש
קקי
ההשקעה
פריז
##חשבת
מבוא
חחחחחחחחחחחחחחחחחחחחח
##פרש
ברכת
סיו
בשיטת
הדלק
וכיו
בהליך
חוקר
שאותו
##מאים
הנפט
נכנסו
ха
תפקידים
##מלות
##מישה
התקנת
##uuuuuuuuuuuuuuuu
מצוינת
##מדי
##אפשר
שהט
מוריד
הפרצוף
תובעת
wat
מתכוונת
לקחתי
תביעת
רותם
פירוק
phot
בלק
וניהול
הרגיש
אנה
##שיט
בכתבה
##כיפה
בריכה
נותרו
בפה
שאוהבים
הראיון
##ובץ
ומוש
##יצד
בישול
friend
הספרות
הניצחון
לבג
חיינו
##מפרטורה
במערב
##ир
##משת
ובנוסף
המיוע
אלאור
שמאלנים
מעיד
##ביאה
פוליטיקה
הקפ
פנימית
ושת
##ליש
##רוגים
##waiting
הזכ
וסט
han
##ווכח
##סח
לריב
##בחנים
הנקודה
המפורסם
מאלה
באפשרות
זמר
##ופיות
דהיינו
##גרפיה
בשיטה
שורות
כספית
שבד
שנשא
ברשימה
למכבי
##גרסי
##ואלים
##ימרי
הביק
מהווים
חקירות
הצעד
לוג
הפליטים
הערות
עוסקת
##פטן
נחום
שכך
##olog
שמחר
##פשטות
לגייס
##ound
חמות
had
##ומור
פוטר
חזרו
##פיא
dan
1998
בנפרד
דירת
ענין
מקומיים
ויהי
##ene
הספי
איזון
ימני
##רגם
פצוע
חרדה
עובדיה
##ניקוי
לעברית
בגדי
אמיתיים
להביע
שלחו
וכשה
לקו
שאינן
##waitingfor
שממש
בישיבה
התרג
כשמד
ליותר
סביבה
קוט
##מצאות
mic
ele
hash
לקט
להשיב
הישג
משטח
##ארטפון
הפרט
אלעד
לעודד
סף
הוסף
ערכי
כשהת
יומולדת
כלא
מעביר
##ברס
##צקי
בצומת
##oft
שותה
##טיש
רבינו
ואינ
בתש
בגליל
##מוניה
ליכוד
שקיים
בריאה
##נועים
הטבעי
אנגליה
המכירות
מאחלת
##רוסופט
תוב
מבטיחה
זוגי
אנס
ניוז
##ery
שעובר
לדרוש
מירב
מימי
##waitingfor1d
צעדים
מההת
בליכוד
נתחיל
ההפ
הנביא
שקרים
##רבו
אתא
ברוסיה
##ma
דיברתי
בביתו
##וזרת
שתח
האקדמיה
בנגב
בהודו
מתכונים
##кт
##מדתי
##דום
נמנ
שביל
הוביל
מזונות
אויב
משלו
השנתי
הקים
##נועת
##רתית
להתקדם
סבור
פרנס
מסחרי
##ממים
לעצמכם
גדרות
##יתור
משתי
איכותית
הוכר
פייר
להודיע
סוכנות
מנגד
עסוק
לחופש
תקרות
כתיבת
זוגיות
הצלחת
סיפורי
השתתף
##נוביץ
##יומים
בבריטניה
בימינו
בתחילה
המהלך
והמס
נטל
מעטים
התאמה
והור
יוצאי
באף
ללקוח
בשו
##ולוגים
ישוע
ומסת
תאונה
חפר
משימה
##28
xxxxxx
מבוגר
שהוש
בורות
הקה
##ציאת
כוש
מיידית
לתקוף
פטרי
תבי
##נסיים
##פתה
בעצמם
##יעץ
##ובדי
באס
##קיון
קהילה
ומיד
דקל
באלבום
הילדות
##יייייייי
ורד
##חסן
כבלים
וישראל
החופ
תהליכים
בבנק
##פרות
המחשבות
לוחם
##אנה
היפ
פברואר
צריכות
##פוז
משור
haifa
להתחבר
תאגיד
##גנים
##טיקאי
אומנם
##עבד
הרדיו
בתמורה
הצלה
them
87
לתש
##טמן
במוזיאון
חיזבאללה
בברלין
חשמלי
צהל
##כילה
וממש
נוהגים
כלכלה
שמטר
לצדק
מתוח
ארון
בעיצ
התערוכה
1948
have
פותחים
הגעה
קרובה
בלחץ
סוח
ריפ
##מחו
תימן
בניהול
מרגע
add
דגן
למוע
מעגל
שוד
ואוה
אגיד
הניש
מרגלית
בשלוש
140
הרופאים
מוגבלות
מחברת
שכונה
לעומק
מטופ
שאמא
##ינוח
תשלח
שומרון
מצטע
ובכ
##חב
מנוחה
ארדואן
happ
הטעות
כנסו
אתי
למשת
ותמיד
תחזור
מכס
חתולים
לסוף
##רועות
כמח
##פפ
וייס
הזמנות
##ינויים
החיצוני
צפויים
תלונה
להתחתן
מעריכים
##רבויות
עסקית
בספרד
##ייג
שמעוני
רזי
הרקע
מובי
##ord
מוצלחת
ניצב
תאונות
ההופעה
מהשי
עמה
בפארק
##ערים
הרצאות
במחקר
בטווח
מכוון
באשקלון
##44
יגידו
##כלך
גדולי
נוב
האחת
##מיץ
דויד
זרע
סנטר
התקיים
הייצור
##נרי
##וללת
180
שהפך
השיח
##נאית
ind
בעמ
##מצה
הכור
יפס
נאור
סגר
העבירה
לטייל
men
מתקיים
##enter
aa
מכני
מעניק
אובדן
##ליפו
פניה
נסיבות
לרצח
הדסה
יפן
גזענות
באוכל
שורש
מעדיפים
בכיף
נחמן
לעונה
##ארית
##פקוד
ייב
נעלי
התחלה
מהמיטה
תוספות
ממוקם
##יינית
##וטן
הכרתי
מצטר
המוסלמים
##קוף
מגה
טילים
הנית
מסכימה
זיהוי
שעולה
##חקת
וגו
##נוח
##דאי
שזאת
בחקירה
##ומץ
חשמליים
לעסק
בשיא
החוקים
##פקו
נהריה
בער
הרגש
האט
המרת
בכדורגל
עוזי
הסמו
buen
החיוך
האושר
חוויות
israelisst
הזין
מופיעה
וחד
##own
##רוכת
תרומה
בעצמך
למדו
התופעה
בפסטיבל
דוגמת
ניתנה
תקנה
##בחון
נטע
##ביבי
##aron
בספרו
הכיפורים
##ניעות
דרמה
הלשון
החגים
אופנוע
שהיית
ואור
במיל
להשכרה
בקונ
בעייתי
##ריץ
צח
האוטו
החיבור
העליונה
סטי
ציצים
wind
כפתור
לחימה
##כנסה
pro
##ונגריה
##ars
שמפ
כוסא
פשוטים
##זכות
הקיימים
ליגה
עירית
במכון
##yle
בסופר
דנ
הפסיכול
##קדמיה
שובר
המלי
תרמי
בפיתוח
במחזור
air
##אלץ
ההליך
##ייסים
##ובליקה
##טף
עולמי
##aint
הגרמנים
מקורי
טיפוס
ויפ
u003
ובלתי
הנאצים
סנט
השנאה
לאוכל
לערוץ
החנות
לבוש
עכש
##ללל
##אבי
לכלום
למיטה
##חלתי
עמונה
לגעת
מודעים
בערבית
הטיסה
למחר
ההיסטור
שלוק
israelisstill
שלמים
הראו
מדיה
כשח
מודרני
ברלין
ברקע
במכבי
נתתי
קדם
פוליטיים
האימפריה
הנושאים
לשוב
ומקל
במתמטיקה
באדם
אותיות
מסח
עוסקים
##צאת
בהתאמה
##ale
ההצבעה
##ונתי
tech
אזי
##ומדת
מתפר
ברצח
הפרעות
גברת
למטרות
לביטחון
##מכר
ההוצאה
מהסוג
##מיום
שחושבים
ששם
הקריאה
הרחבה
הסקר
המערב
##ילונות
הפסח
התעורר
time
##יבה
מנס
לימון
ידיעה
est
קבר
המשימה
נפלה
те
הדפסת
פתוחים
באזורים
התערבות
לגב
מותג
##גישת
גפני
ואיש
##מטר
למדינת
##כבר
לתכנון
##95
השינויים
כידוע
##שתית
מהדורת
מצפים
##ther
במושב
נרח
הפגישה
הצדק
מכולם
דרישה
ולפ
אמבטיה
##מוטה
##יסטית
מחלת
מקלחת
קרדיט
השיחות
##נקס
בקורס
גט
ההזמנה
שהביא
המנג
בפת
##טיפה
רונ
ואנשי
במסלול
##ומל
##חשף
##בלנות
מעשים
לחצי
חבריו
נורמלי
##וריים
הפער
המצי
צרפתי
ומלא
##שיבו
המטופל
שכות
הוגשה
משותפים
פיצוץ
לשקר
עושות
לואי
מרחבים
הנצ
ממליצים
בידו
והייתי
עמדו
אחריה
פוק
ביקשו
הסתיים
ישמע
נתנה
דורשים
##פורניה
נכנסתי
נרות
בפרויקט
יראו
תמות
מלחמות
es
עבורם
עדים
דחה
עוצמה
what
המפעל
החוזה
טרום
מתר
שף
שכתוב
נערה
שומרים
אימא
##מטום
##ент
בספרי
אזע
שחורה
מדריד
מהרגיל
עליית
1995
##ina
פוא
הכנת
תרומות
נלחם
זכור
חווה
התקווה
חומוס
ירושל
שאדם
מסתוב
אצבעות
הסיפורים
##דרין
עבורי
תפסיקו
למקרה
בדרכו
המגיע
להשתנות
הערוץ
מגזין
##קטורה
##מחת
##טגי
כשב
באותם
גרועה
כפיים
גלים
גלגל
##אוכל
תפיסת
המפק
תקדים
israelisstillwaitingfor1d
בדק
##שיר
אטרקציות
מטוסי
ייפ
עירוני
סיע
עסקת
לצרכים
##35
שהוע
הפרת
משפחתית
באיזו
##ייפות
##צאתי
שהדבר
שבני
##נבו
מקלט
שאיר
ההל
הכבי
לפיו
##צוב
כלונס
רבקה
במחצית
גרה
אלך
גלידה
פיש
להתר
הובלה
##65
השיא
הווי
לחתום
##גלות
מגלים
ארוחה
אונו
##לקית
##שלון
so
תופס
##סיבות
ליטר
יקיר
יער
##שינגטון
##גרמו
דואג
1996
מתו
אמריקאית
ויהיה
יאפשר
##ייקטים
מהעבודה
במסעדה
##uk
##וצרות
ב2
לפיצ
ידידי
##ус
הוריו
wel
חימום
הפגנה
##שאית
##ודשיים
האף
##ros
כאי
הנדון
סימנים
מצביעים
במבט
טענו
חווית
רונן
dere
לארגון
המושג
אללה
צפת
לחינוך
מבחוץ
כשנה
הצפוני
מכוח
זהבה
מצאנו
העולה
פלסטיק
ההשת
לדמיין
מוזס
יחדיו
קירור
ספונט
הרכ
לרשום
בקהילה
קורסים
שמעו
בחדרה
##גנה
##ירושה
מרצה
להופעה
הטענות
המדריך
רצועת
תהליכי
##עייתו
לאמר
כרו
הבלוג
##אטה
##רחים
##יטד
##טוחה
##ys
##זיז
בלוג
ביניהן
ובמקום
שנג
אמירה
לעדכן
לחול
##שרדים
להתפלל
##iya
מפגר
בקור
רשום
האנושית
לשלטון
ארכ
השיב
שקוראים
במחלוקת
##בדלים
המצלמה
במבחן
שווא
איתכם
לשער
המסמכים
צרו
##חסים
שדות
משוכ
אקו
לאמץ
ותודה
מלאכי
להטיל
יחזקאל
טופס
העדה
לקרית
מתחר
הדואר
##חיתות
קינ
הזקן
שהות
וצבע
טבריה
באמ
מקרוב
קבועה
לחקירה
##אגה
##во
וקל
דקירה
שלחי
הממונה
תרצה
וקצת
בטרור
יפתח
##👏👏
שנר
לשעה
##אוס
##נונה
לטוויטר
##חונות
סדרות
התלב
תגובת
גופנית
מנט
תשעה
חנ
עסקיים
להית
ריבית
רכישה
נועה
אלח
בנוי
ישוב
המעשה
org
##יינ
ובטח
עוצר
מלמעלה
תמורה
שמיר
כדוגמת
בחג
##alk
ליש
##ציבות
שרשרת
##ותן
התוכנה
##קדש
שאמרו
שנתן
הכריז
סחר
כשהייתי
משטחים
ואו
רצפות
##ברא
המודרני
נפלאה
ריאלי
טיל
ציטוט
נכונים
##וסיות
ארוחות
למשוך
סער
jtm
הורגת
שומרת
בישיבת
בזב
תולדות
שקשור
ומספר
הציג
בתחנת
ההשפעה
לאנשי
##כולה
##פקות
טיפש
רובי
##oo
באז
##ull
אטי
התקדמות
##דיחות
סתמי
##uck
ויצמן
בחברון
רוסי
גרפי
מנדלבליט
הירש
##יחה
נעשית
אפליקציות
ידועים
ולכ
האפשרויות
תזכורת
ויתר
פרסומות
להתאהב
ברזיל
סימון
מלכתחילה
תבין
העלאת
למטרה
לזכר
children
פלסטינית
מחובר
אקט
אמצע
להרוויח
palest
איס
השוטר
זיק
ומצד
##זיר
נפשית
מסריח
הוגן
חומצה
מסודר
ציפיות
האדרי
לבלות
ter
הגדר
בגרות
ip
ואש
תחפ
##חזיר
##כייה
כשנ
ימצא
##נפלד
עומק
ומכאן
##וכמה
תיכון
תאמינו
בהשתתפות
הממ
ופחות
הלכות
ללימודים
נהוג
מהלי
להתעורר
בולט
מנהיגות
מעבדה
הסוד
מעד
שגריר
ולהצ
דורות
##ירוק
הצרפתית
תלונות
##מישי
והשת
##וניה
מנחה
##פלא
יעילה
קוו
ברציפות
##זונה
לומדת
האתרים
kill
##ول
האלקט
בכיס
##им
החתול
##שתות
קיפ
kn
הקפי
עשן
מצומ
החיות
shabb
כמא
החינו
שמל
למבחן
במשהו
##ייניץ
##уд
האווירה
אצלם
if
שיקום
ותל
ההתא
ההצגה
הבוס
מרב
ומיוחד
הציונית
חלקו
כדורים
החקלאות
לתכנן
ראייה
רטוב
הפרלמנט
יסודות
הכתוב
דמוקרטית
##בקש
ופיתוח
קווים
בקצה
בבק
##ath
העני
חקירת
ara
בשבילו
אהה
dia
עיראק
##ממות
האנג
לתביעות
הסקה
##אלב
##ומנות
למתח
וליה
לוז
תנועות
##יאוף
הירח
בממוצע
##ולאי
העביר
פרוב
הקצר
לדירה
גנים
בקיר
##rew
##али
##יאן
תחומים
מאותו
שכדאי
##75
הצבעים
בונים
האשכנ
##נועות
וחבר
##קאות
שנד
שטחים
גוי
הודה
חחחחחחחחחח
מקומו
ספציפי
##צחיק
real
משאבים
אומן
עלויות
##ודשת
במבנה
דווח
הריח
הירוש
##טריץ
##פורמות
בשמו
בפיק
מחלף
##ומון
טכנאי
האפש
ניפ
עוגיות
##נרגיה
רפאלי
##יסטי
תמצא
בהופעה
בהיר
פתחה
עניינים
סלפי
##קבוצה
המבקר
ביפו
הועדה
##נקציות
העשרים
באצ
וחברות
דאע
המנד
שיודע
ובתי
בשירותים
##פורד
לברך
ביניים
ההשקעות
מראים
הגג
##וחם
טכנולוגי
הארצי
מזמינים
הבשר
שעומד
כיה
המכללה
התקבל
למוש
ירדו
##וקק
החור
הסתם
לרפואה
חתן
##ישורים
לצוות
הגברת
שהמח
השישי
שכונת
שפורסם
##סיים
בביה
כוחו
פיגועים
תענוג
מונע
הרכישה
הכתיבה
אינסטלציה
רגיש
מצות
ניצן
קשיים
נישואין
הצגת
ויצא
ריצה
##זמת
##eth
הגעת
##פיפות
מהמע
ואביז
האוס
לכדור
##כליות
השטן
לבחירות
ניסוי
השד
שבק
קריירה
כוסית
הגישו
אלעזר
לנווה
##פתיע
לירות
זרם
אבינו
החזק
התחייבות
גולשים
מזכירה
מוכיח
הצעירה
האיכות
הגיב
##gb
גרוס
ya
ואיפה
יעילות
##ans
פוליטיקאים
##ליפי
שיאפשר
אימה
להתגבר
מיותרת
##יגים
##ple
הכלי
##כורים
##نا
רוצח
שחורים
יכל
הסורי
דרכה
בניס
לחנות
מבאס
בודק
המיי
סיפרה
ויכוח
מכסים
לחברים
הבגדים
זמנים
ערד
מיעוט
לטוס
העמים
##קהל
##גדור
גוון
פגשתי
היתרון
מפוליאתילן
המונח
היפים
##פטר
##ייבו
לנשום
להפגין
נמנע
האלימות
כראוי
##לג
##מידות
##נדב
##ילס
הארג
לוא
##ולא
תקיפה
##ons
שעם
בתאונה
##ירית
משוג
חושש
לרכישת
##ומח
הפסיכ
לסיכום
תפוח
1997
goog
עיניו
get
מוסמך
השיעור
ראשונים
יקח
read
מבחנים
מורכבים
לגבר
אגרג
##וערים
##נקי
האמריקאים
האנגלית
מעולים
הריבית
מצטרף
מנח
צוחק
הסינית
##ראייה
להפיל
גרים
להדגיש
לפתע
הפגנות
שמשהו
התפילה
מפחדת
ודור
בילדים
בהול
סרטונים
מאוהב
והרג
לרקוד
לעורר
##סיקים
באיטליה
לאהבה
אגודת
pres
##ier
##ווך
##לקו
פרסומת
##וארת
דלקת
מצלמה
מעלים
הנות
טענת
משמאל
סטודיו
##וכחה
71
הערכים
מסקנות
##טלית
black
לרצוח
הולנד
פריטים
טבעיים
##об
לביטול
##ליחות
שטע
שרופה
אמות
##נתקות
הלש
ראשו
מרמת
נמצאה
שלמות
##עתים
מעורבים
בבלוג
דונלד
##iss
פעולת
ре
תועלת
רגישות
##נהגה
המוסר
ביני
מהנדס
העסקי
##בורך
לתנועה
הפחות
נשמח
##ram
לוה
pet
##הההההההה
דיגיטלי
ללחוץ
טוק
פנוי
בשורות
באולפן
##בורגר
אצלכם
אירופ
##ניט
##78
שתצ
הקודמים
מהממת
המטההמ
ממצ
המבקרים
עוגה
##יחסת
וכיצד
##ליד
נתיב
אינדקס
##וויזיון
ניג
הודות
בוועדת
גלאון
רומנטי
##מוז
ומיו
המצרי
בוכ
comm
המקצועית
לקבוצת
והגיע
נכנסה
##ווווו
בגמר
אזרחות
מהעולם
תרופה
##אדה
##ולש
המשיכה
להפסיד
##צדק
חקלא
הגנת
תוצרת
הניהול
הסרת
עוגת
טיעון
מתעל
תיקים
חינ
מסוימות
המדרש
בחדרי
נשוי
יקום
ניקוז
1980
##סינג
המוזיק
באנגליה
##וסטרליה
מהרגע
##רחבה
המטההמרכזי
לנוכח
עונות
מחברי
שלושים
##בקשים
##פקידו
להתעסק
השיי
הקא
ארבעת
לאמנות
התיקון
התקבלה
ההתייש
ואן
סטייל
מטוסים
##ייסת
תקלה
טרנס
לביה
החלומות
ושומרון
המטור
הבריטית
הקבל
כיפה
strong
מילות
בקשות
שמחת
הגרסה
##וארד
sa
גינה
ביכולת
##לף
תקן
##פיי
מצחיקה
אופק
התחתונה
ההתנהגות
##יהוי
הקשרים
שאלוהים
לשמר
מכלל
מימד
##vel
לביא
mo
לתוכנית
מהמם
מתקשר
האוב
השדה
תתקיים
מאידך
הרגיל
שליח
הראוי
לאלי
רגוע
פשיטת
חבילות
נודר
שקרן
ימינו
מופר
שוקל
נשארת
המבוק
##שיו
עפולה
להפיק
##לבש
לנשיאות
##שלכות
הפלשתי
##טינה
המשל
לצרכי
הרוסית
##סלם
מהארץ
##xt
הציוד
מופיעים
ההתק
צמחים
כראש
מבל
התחום
##ניאל
פצצה
פותחת
בכמות
הרוש
##דא
כבישים
קבוצ
משיב
עט
##טריונים
##טימיות
מספרי
##нои
השפעת
הרצאה
לעצב
³ג
tran
##48
להכיל
היתרונות
במנה
הכיר
שכח
ניתנת
רדי
אפקט
##יוניים
המעוני
sk
ישמור
שתדעו
מהמקום
בתקווה
פונ
גאווה
משאית
ועושה
##רתה
##יוונים
ההמלצות
מוגדר
##45
לדרי
בשבילכם
גועל
צורות
לביתו
מארי
##ions
וחוסר
דודה
בשאר
shalom
בחורות
##ahu
פיצויים
חרב
trump
##לומים
##طف
הכוס
##סטיים
##יילי
מלוא
פלור
גרמה
מונית
מצחוק
לניר
דוקא
החמישי
נלך
##book
שאיב
##כינה
##שיח
במקצוע
ramat
המתי
להמציא
במפעל
אום
חבילת
בדברי
##וחרר
המומחה
מצטערת
כשאתם
מוציאים
הפעלת
ונט
בסכום
זוכים
חוו
הפרה
שהנ
##יומה
פינות
המחזור
לפנים
בהנ
188
נלק
יריב
נמוכים
חביב
יסודי
##ומבי
בטירוף
הנוף
בבטן
לעור
השרה
##אליות
להתערב
##חונית
יתרה
##eg
תומכת
הנמו
הסיכויים
תקוע
יבינו
ואהבה
הלוואה
##ews
המשפחות
מתקדמת
המיועד
שמלות
בתוקף
לרמה
##צלחת
באמריקה
##כנין
זיהום
מכח
המשתמשים
google
##ishon
האישיות
גורמי
world
נכות
היועמ
ביובית
עקרון
יהפוך
ההכר
##אמת
##אגיד
ליעד
היחידים
##ount
מיץ
לצמצם
מסובך
##קקקק
כמוהו
הדיבור
במראה
##אלוג
כמויות
מחיצות
קייטרינג
שמאלני
##יועץ
נגישות
מעץ
מכורה
ליבי
a8
##טציה
תעשייה
ועיצוב
הנער
לאבא
מיטה
##ha
שתוכלו
##per
מכשירים
המוסיקה
טים
תכולת
הגרמנית
##בקה
הצרכים
מידות
לחופשה
השחר
סנד
##באום
##פגשים
##מג
ופל
ההיפ
##קבוק
הסכים
##ערבים
##ower
הקורא
##קעי
בליגת
מהותי
וחשוב
התחלנו
1994
הקושי
נוטים
וטל
free
סעד
הקדושה
##ילם
עוזב
במב
הנכים
מסכת
קיל
ימינה
געגוע
שזכה
אדמו
לערבים
##וגרפיה
הורג
su
עיסוי
נצח
שעשית
אונלי
פיבר
סרי
השילוב
welc
אגד
לור
בום
המודיעין
ישראליות
בבעיה
במכתב
הילה
חיד
רימון
##נרל
קיומו
מייק
##98
et
##❗❗
מיש
כשלא
המחוז
ur
קטעים
פרגולות
לארוחת
אידי
תקנות
חסון
מלאי
השכנים
נורה
ירצה
טול
##ומס
##עעעע
המוד
פיט
רשם
גופו
הפט
גונ
##שילד
גליק
עונ
נסע
אחדים
בייבי
כישלון
engine
הנמצא
יציבות
הדפסה
חולצות
windows
נוטה
הקומוני
חתימה
המפלגות
הנדרש
הביו
לרעה
בענין
שמלה
ווד
באסה
##סוס
המסעדה
סירב
att
נוצרים
עיכוב
##וקו
וככה
התכ
##ife
המדיני
##פז
דיברנו
##ary
##ובלה
לשקול
במקומו
##פצים
מזוי
##שבים
ותוך
מטורפת
משכורת
בספרות
סורגים
מינ
הבניה
sec
הגולשים
הזהות
קביעת
##weet
המדובר
##וטובוסים
מדהימים
##26
##עמק
##וסיית
להורדה
אנוני
מהמס
##נונים
בהדרגה
מפסיקה
har
##way
התרופות
חבורת
ממלכת
מכין
מועצה
##צלם
הבעי
יחימוביץ
צימרים
גרג
ישו
##יכם
ההיסטורי
גיבוי
שקיבלתי
קום
סוכן
וטרי
מרכיב
העדי
מלו
##דוף
איפ
הספצי
תשכח
מזרחית
##שיש
צוחקת
בכסף
מצייץ
הכיתה
נחר
בגוש
תמך
##צנה
שהתח
המשפטית
##בקשת
הסכסוך
בילדות
הדעות
קשב
שרכ
ברכי
המחבר
העוסק
קינג
inst
אהב
פיטר
לסת
הפקה
במערכות
##שובים
bus
שצי
##יריון
המועמד
תבע
בובה
כולכם
מהמו
אפליקציית
מצוה
מרוק
במוח
בכם
אקוסט
חייך
העלילה
להפחית
##אנים
המגרש
אחריי
הגירוש
המקומיות
קת
הסופי
שכבות
##over
המספרים
דמיון
מחליט
shabbat
הסיוע
##פסתי
בינלאומית
שיצאו
##ימריז
בגבול
##ica
##זבת
לתעבורה
מזר
פחם
שגורם
1992
לינה
פלג
rec
שהיינו
הנכסים
מאוכ
בהנחה
כשרות
למחשב
מוגבלת
דער
##שנו
##ינר
לנא
מתייחסים
להרבה
מאיים
##arker
סן
בתואר
מאבד
##עיין
מגוח
מורי
night
השקר
הצגה
והשני
##ست
קנאביס
תהיי
ב20
המועמדים
מתייש
יואל
ספחים
liked
אזהרה
לבניית
כנו
נגיע
בעצמה
הנסי
##פורש
happy
לאלו
ולבסוף
##ולציה
שיום
אסיה
##נבי
שרואים
לארגן
הנחות
##וניס
שינו
ציי
המתאימה
עצרו
להחלטת
התפטר
צמד
כעס
מגרש
במעלה
rishon
לשיחה
##יאו
אלקטרו
מגול
לאוה
מפורס
להיראות
קומה
הנב
like
כבע
כוו
ושלא
prod
ביממה
##פויה
##27
יצור
בתנועה
##מטה
עצר
במחוז
האופניים
הנסיך
צרכים
##ידית
##ест
לרופא
וכדי
שגרם
המודרנית
גוטמן
באורך
ולל
שמכ
שמאי
кон
אביזרי
##צץ
אזרחית
##טיחים
לתה
ויקרא
נבה
המיקום
ניסיונות
משפטיים
##ורץ
רוטשילד
מחמי
כפות
הבריטים
למאבק
תוע
רבנו
שריפה
פקודת
מנקודת
העומד
ספציפית
לייקים
להסתובב
##צין
יצאנו
בדמות
מזמינה
לוואי
אמסלם
##po
##קופה
מקרקעין
ורוד
part
הורס
##קפת
חיצונית
היסטורית
איומים
##לאפון
רוכב
##אמים
בחסות
מסתמן
##דיס
פרסי
רגשית
פיזי
סומך
##ata
העוסקים
שנוצר
סטאר
עזבי
לשאלות
הבטיח
##ישות
##לוואה
נגרם
נדי
ענייני
##גני
השתל
שאחד
אוסטרליה
למשרה
##טיילים
ומרג
לסיפור
לאבי
ניב
מעיין
האישיים
##قت
##וחח
בפניו
רמב
##he
בממש
##וכי
מפנה
מניעה
לממן
דיאטה
לידיעת
##וכו
מהנד
##ומיה
פעילה
הרגעים
ופרי
וחל
mod
dav
עמר
קנדה
##זינים
סופרים
רהיטים
##אאא
יציב
שמעת
לנע
##igo
היציאה
והסביבה
##😱😱
ham
נחס
התעור
ולעיתים
ומקצועי
אוקי
משימות
הכוכב
אונליין
##וכנים
סגנו
##ורגיה
האימון
##קוי
הקוס
לכבד
##כד
מהאנשים
חקיקה
מסכימים
##ומכים
ובהמשך
האזרחי
שהחל
##יומו
משלב
וילדים
אדמות
comp
##צלמות
שופטת
דפוק
הכנתי
החרי
##ade
רך
##חתים
העיקריים
במתן
בסביבות
איסוף
בחרתי
זוגית
חרו
נסיעות
סתומה
##פתיים
פלילית
נסו
רצף
נובעת
לכבוש
שנפל
כשבוע
ובאופן
משולב
בחוסר
החזר
עזרי
דופק
מקרית
##קרתי
עיקול
לשרוד
ניסים
מטריד
##נתח
##יקוי
החלטנו
##טיפול
לנט
##גג
אדירה
ישנתי
יישום
דמו
מדווחים
נמשכת
נכשל
ליפול
בנפ
המתמחה
ובמח
ניסן
דיונים
##ии
1993
##וסטון
החשש
ברקת
בגבעת
הדיווח
עבורך
האופן
למרבה
תעודות
פמיני
תעלות
par
מכללת
בכול
דפי
דיק
בחמש
הנקרא
בעור
##בולים
הסתיימה
##ey
ולפיכך
קעק
##כניים
מכסה
לוחמים
בחתונה
בוש
gut
משטחי
הסיום
בבחינת
sl
שוטף
הרבנות
זעם
לבקשת
סאל
לאישור
ללימודי
להשאר
הפיס
הודיעו
להוראות
ואלו
##enc
בחיל
שליש
מירושלים
מגוונים
ма
בעשור
##חישות
ולפני
תקציר
יוקרה
המכירה
עידו
המרכזיים
##ond
ان
להפר
שטחי
##לימה
##רכנים
נפח
מנהג
gold
העוק
אחוזי
110
בהתחשב
תחזוקה
יבואו
מיניות
הנוסעים
הגידול
היותו
המשיכו
##וסין
##יאני
השמות
##ריאה
אשכנזים
להסכים
##טופ
ret
חה
מתקרב
מרפא
להיפך
גליל
וברא
דרוקר
כשמדובר
רוה
עודף
##טרפות
שנולד
האחרות
החומ
צמר
מחוסר
מיליונים
##טיף
שפתיים
אמינות
##oss
רפואיים
##need
##זינו
אוחנה
##ינשטיין
טבעת
מתקשה
משתף
דומות
וידע
בעסק
##😴😴
ענן
ובפרט
בברכה
מחליף
##יצר
צילומים
##וליים
נעל
דעתך
##יווי
##ик
חפצים
נפתחה
שפל
##בקת
ואיזה
החרא
תתחיל
פלסטין
##ריכות
##וען
לעשן
סטודנט
נרצח
דיוויד
say
סלול
##תרבות
welcome
##ששש
מבקרים
עוצמת
צמיחה
הבש
##ליזם
מטפלים
כפרי
##מפוס
nat
המדהים
תפיסה
בנמל
לפרוש
עמידה
##פרנס
##ung
עוזרת
מחזיקה
##оз
איתמר
נערים
pm
##רופות
וצע
##ив
צוותי
##38
וביקש
הפנימית
משמעותיים
מכינה
israelneed
##אווה
דלי
קנו
המשמש
ge
האלופות
ושא
צילומי
במרו
אראל
לזו
כמע
ישאר
ידיו
שיוכל
נעשו
זכרונות
##ист
לשידור
האבטחה
משתמשת
כשהיה
um
##וויז
משדר
אשמה
שבן
##בעתיים
טכנית
לשטח
רוצות
הבכירה
נאמנות
##אותו
בצוות
ששמעתי
##וויל
מעבירים
נמד
הסח
בדו
##רעורים
להיב
העיתונאי
ביתנו
##לחנו
ליס
במהרה
זהירות
אפש
##не
##ames
ההפעלה
רוש
השוואה
דירוג
מצבה
במלוא
##נרים
הצצה
הסיר
ינס
##רכתי
פוד
bet
צער
עריכה
בהודעה
שולחים
מתכננים
בעבודת
חמישים
סיימה
מטבחים
ברצף
רול
וקשה
השלושה
כשאנחנו
באמא
הישיבות
##מוקים
מסעדת
##ייפ
מטפל
האיראני
##קולטה
##ביעים
הוגש
שרתים
קאס
##וספות
אמריקאים
##שתתף
##ations
del
בפסק
קץ
מיקרוסופט
תדאג
##פללים
שטייניץ
מסתדר
שעכשיו
זינ
ההולדת
בקריאה
acc
מאתמול
##יחור
השתמשו
והמק
לחייב
באוטו
סודות
בתיכון
יישאר
סופג
שדור
מגיעות
נפוץ
عل
לקפוץ
##מישהו
להירדם
פוקס
##ias
מועמדים
##שלומים
ועי
##פידה
##list
קליין
81
ייצוג
##ליס
shem
כתיב
לייצור
##bs
הרפת
המהיר
בהרכב
טהור
הצדיק
##כונן
השמיים
אזורים
הסק
בהד
##והם
חבורה
סערה
מרטין
נמס
מארג
##פעלת
הקלעים
קק
מתישהו
דלא
ארבעים
להגשים
בלבנון
האירופ
fun
לנחש
הנחיות
סטריט
המגזר
אדון
אקוסטיות
##פתעה
שמעולם
ההתנגדות
שאז
##לטים
##מסטר
דיפל
##יבים
למנהל
מרשימה
חסידי
תנח
מכינים
כשאין
סתי
אלים
בפוסט
##רס
mak
מדברי
בשמאל
##טריד
##ונתו
המייצ
תפריט
##לאמית
שיעשה
תתא
##כשל
והתע
##טלה
tw
תורם
הארד
למידע
##פריסין
##68
הרביעית
למשק
התמודדות
המסים
אינסט
ידיד
הצדקה
האני
לתושבי
elect
עצובה
##וטח
נפרדים
בזול
##למית
הפוטנציאל
הורדת
המתאימים
בצלם
##נוכה
יגרום
שמאלה
מגור
##וגרת
מחודש
##מלט
בחנויות
וראה
##ft
זועבי
סעמק
אפור
ההגדרה
##29
##קרו
ולמעשה
##uit
מחשוב
##🇺🇸
##ביך
trans
##21
בתביעה
דרש
##يد
ואס
סקי
לגובה
התמחות
גלגלים
בדרכי
הנמוך
שעלה
רוחני
המוט
##נעם
הטיעון
##וברות
בעכו
גדלה
גלוב
הפנסיה
תיירים
ופרס
בשלושה
תווים
##צבת
בטיול
לקשר
מוסף
##דויות
המרחב
לנוח
הישנה
עלוב
וטע
##פתחת
פונים
בשלטון
שלילי
האקדמית
המומחים
לגד
##תיבת
ואוכל
##ידור
תקראו
מוותר
הכנסייה
סיפורו
זקוקה
שראש
##צנות
##co
טלפונים
בקניון
בדיעבד
מורכבות
פישר
ואיכות
שמירת
אזרחיים
בחיפוש
##צוץ
הופעת
בחינת
לבדו
##צמה
##חרים
הקטנות
בספורט
וכאן
##שלוח
מברך
הוספת
וציוד
ההפך
מאחד
##ident
כלכליים
##sk
ושלי
du
הוועד
שבית
ביב
בליל
##וענים
להעיר
##גיעת
קולט
##פסון
לפנה
מקסימום
הרפובליק
לצעוק
שיקרה
תנסה
נרג
##גרף
##ירתה
כוונת
ערוך
הצורה
קילומטרים
בורא
לפחד
ממוצא
תיפ
צדיקים
שלש
was
אסט
לגשת
התשובות
הדברה
101
כפולה
קיומה
##da
תבנית
קלמן
מחמת
אקוס
ריקוד
מהפכה
התנג
החולצה
שדווקא
היכרות
פרוייקט
פרידה
מסרים
מחייבת
בינלאומיים
דמותו
הזכיר
לחלוק
צריכת
אכילה
השיק
למחנה
בשע
מחסור
ראויים
##34
בחומרים
##ושש
נחמיה
##ורתוד
קרנות
מצאה
במפגש
##ונאי
מחמד
בוב
צמי
מגב
טעימה
מוסיק
חריג
שבעת
##ישג
מושך
##לבוע
##ise
לביוב
שחושב
חשיפת
בתרבות
הסף
התרופה
טון
חשובות
היקום
סמסונג
עשירה
להתפטר
המפכ
המינים
ספיי
לרחוב
להתמקד
לצייר
אוסלו
קידוש
לערעורים
##ירועים
ממא
הזבל
חמודים
ירוקה
סמוטריץ
מפעיל
##איון
חיב
מעוניינת
##ישלון
##איפה
##נקת
משכנתא
במישור
הסיי
גרעיני
за
ממלא
מאסטר
מפלגות
בשבועות
מער
לכתבה
מתלה
יפסיק
משרות
##טיבים
##פריקה
משחקת
חלמתי
war
שיפוצים
תלך
לתבוע
דרכם
לדור
השמחה
##חקן
##םםםםם
לפרוץ
ברבעון
##פלות
שזהו
הקרח
התיאטרון
עשירים
לפתרון
##יוצים
התקנה
משאבי
לסטודנטים
##נחים
מלאך
let
חגיגות
יעמוד
להפיץ
תקופות
מלאות
serv
##פעלים
סרב
והנו
##רכיה
נועדו
האיום
אליהן
נעשתה
שקוף
##ובלות
##מסגרת
##וליה
לנוער
אוד
כותרות
וכנראה
נדרשת
ניד
מתקר
חישוב
יצרו
שגור
קנס
להורות
האוק
הישוב
היוצר
שבעולם
הותר
מסודרת
שיפוטי
בריאים
לאמ
התכוון
micros
מודעת
רים
##פם
##בבב
פגישות
ושתי
##בטחת
mon
חיצוניים
גרמני
הגאווה
המקסי
המודל
##מורות
הבולטים
##מלת
טוט
האבן
##ict
1990
הסוגים
##סיפור
##יזר
המפה
מתוקים
תיו
שלטו
עריכת
ביצה
##ועלים
ונתן
מסרו
תקשור
בהשר
אינטרסים
קליפ
בערים
למראה
משתלם
##חסון
החגי
##חלת
##64
הטרדה
הלוואות
רוטב
##als
הנשיאה
טעמים
לכדי
מצעד
הנדסה
##מליות
לחיילים
אמרנו
רצתה
now
למנו
מניעת
להתקין
נאס
מוזרה
תכשיטים
הקשים
לשנוא
130
מאוניברסיטת
בארו
בחרי
כשם
ידעה
פעמי
בתכנון
ניכרת
בצלאל
ובראש
בוצע
ליטוש
בפרטי
1967
משנות
יומיו
##נאפ
##טיסים
במתנה
הצפונית
ומקלטים
להוות
כלשה
לבניה
מזכ
##😫😫
לסוג
נזקים
שלחתי
וכיום
אספקת
ממשרד
החלון
קבעה
לתובע
##פתחה
ותר
שכחת
##طفال
מפחדים
התיא
לגדול
סוללה
רונאל
אוזניות
לחוש
גביר
והתק
מעצבים
בורג
פירוט
דופ
##פאדה
נשיאה
המוזיאון
אידיוט
who
הקיסר
האמן
ההנהלה
##טיבות
למשפט
לאג
לפספס
שיבוא
היוצרים
ההוראה
mag
1991
תקרא
##קטיקה
וברור
##נהלת
אובר
##טואלית
##😂😂😂😂😂😂😂😂😂😂😂😂😂😂😂😂
צרות
מפגרת
##נקוט
שהמדינה
##ואלה
האמריקנית
##רינה
##פתו
ההתחלה
לתמונה
לבו
##able
תבר
##רצאה
אובייק
הפעולות
ביטומ
סוכות
קרני
##לילי
בקטגוריה
##😂😂😂😂😂
##נבל
דרמטי
סביבת
##פורמציה
דקים
מרכיבים
כלבה
##mer
במידת
בעומר
אלמ
הפח
ונשים
שמגיעים
חצר
סוציאלי
בפולין
הערכת
חלוץ
מקנאה
בוודאות
הנמצאים
קופת
בצק
ht
האמיתיים
סורי
ביז
המיוחדת
בעמק
יתחיל
העמוד
תעבור
תדמית
נשארים
תשכחו
בשווי
##ולרית
##נטיקה
##שאלה
רכיבים
ריקה
להתנהג
בגינה
זורם
מתגלה
##מלצה
נגע
הכבד
ששל
##צוגה
##כחו
##wor
השווא
##כחת
ברורים
ימשיכו
ביג
להאשים
מסכנה
נפשו
המשקל
פסל
מסרב
בשנתיים
לחסל
לתלמידים
לשירותים
הרעב
כבדים
התפיסה
אנושית
ממחלף
מיליאר
יורה
גרועים
מחלקה
עמים
בבג
משקיע
techn
##ance
ביישוב
מודי
1984
כוסות
שנמצאים
הסופ
##oth
למבוגרים
לנפ
פרסמה
בביקור
פרה
גנב
מתכנן
המנכ
בוגד
שולחנות
לבעל
מהנ
גרמו
האופציה
מאש
לכלי
המידה
קישורים
##100
##יייייי
באיחור
ואיכותי
המכר
הבק
מוגן
##😍😍😍
בהוצאת
הכוללים
שנקבע
##צבה
הרוסים
יומן
פרצ
סיכוך
לטעמי
שנינו
בסיבוב
וטר
מריח
עיתונות
תמה
בשק
בכס
##נדסה
השמן
בפגישה
##יבט
##ope
מסלולי
נפגשים
##טום
ורוב
##יישן
ולדי
סוצי
ולהבין
משאיר
הנחת
בסל
גוונים
הרפובליקה
רשלנות
##אונד
יהו
טיפת
מצלמת
המכתב
ביוטיוב
אמהות
שכמעט
שמנסה
בדואר
המרג
המאפשרת
פרטנר
##ילונית
שקיבלו
חוגג
כיבוי
כית
וכמעט
דברו
##דקים
לימי
מפגשים
הדרומי
מכמה
האזורית
לעזרה
הגדרה
בטורקיה
המדבר
כיהן
מהז
ההבנה
איינשטיין
תוכנות
שאמור
כדורי
שאפו
שמענו
ידה
עצב
##מניים
שמנת
מונח
ליע
##משכת
תדא
que
לקד
##יווח
הצוללות
ראתה
##פלד
כייף
אחריהם
שבאו
יוב
##ייבת
הצבעה
רוחב
##רגיות
הדורות
ידענו
מדלי
לדווח
הכלה
מפרסם
בוחן
בכח
palestin
has
##בטח
כובע
והני
תופעת
בסה
לתוצאות
##יבלה
פרעה
##ערנו
לייזר
##חשק
מאמצים
אחיד
גינ
الس
העניינים
שביתה
לשאר
ואק
נביא
והרו
שכלל
בגביע
יוו
מפתיעה
##יימר
ברעננה
להתייעץ
##ציין
מתקנים
מנהיגי
תאים
עבדו
הכרי
תשלומים
להתקרב
גיב
##בקשו
##cl
שבור
סבירה
##מאללה
בקומה
cam
קלט
בפק
והדבר
לשא
בכורה
הקווים
נדע
וחמים
בתוכה
כואבת
תחשוב
מתכוונים
מראות
להיד
כט
##ונאות
הדק
חנוך
פסוק
פגש
פוליש
הבמאי
תתע
##lv
##סלב
אכזבה
לימין
##67
האחראי
חותם
מחזיקים
ראיתם
##טיחו
הבנו
שגיא
להגנה
לאותה
נתבעת
חריפה
אבוד
##اح
יוקרתי
##ья
ישעיהו
ומוצרים
פילוס
ייתן
##ורבות
לחות
מקסימה
הרוחני
הולם
שראה
##yahu
הגיון
הסיב
##קטורים
האחורי
תמשיכו
##זלים
לחוף
הוצל
##עתיק
יורדת
משמשת
אלן
לכלול
מנורה
##נצלות
המכונית
שתס
ונא
מדרום
קהילות
סקסי
##elet
סעודיה
עברנו
שהסת
##פילד
מתוכם
להדליק
נרדמת
##ents
##לאס
פלאפון
בפוליטיקה
קפל
בקנה
##חסום
המטפל
##far
העיסוק
##יתכן
מקביל
##ner
##ואנה
ילדיהם
גדות
לקריאה
האזינו
שלחה
סדנת
יוגה
הקצה
לדורות
והשקיה
##זבו
תפוחי
##מכו
שנט
##קדם
חכה
מעת
אפרת
הוציאה
להשתלב
ass
נועדה
תכף
item
הפרטיות
יגמר
בלעדייך
לבשל
התקף
##כתם
לכיתה
האפי
משקר
בהיותו
בדלת
##פעת
חא
שאכן
המשפחתי
התקשרו
##אנית
רונית
ויחד
לחלום
##ליטת
התגלה
הפסקתי
מתעור
הכפ
##ora
##rg
שיכולה
189
##קטוריון
שתל
להיזכר
האוז
טיים
פער
hebrew
sol
יתברך
המקומיים
אימונים
לשלושה
##ופעת
הצביעו
שכבת
פנסיה
##בעי
הגדלת
##כתיב
המרו
לגני
##לחים
פיפ
בסיכון
##מצעי
מעניקים
הביט
derech
שאמרת
ואופ
##צמות
צדקה
הוציאו
##וווווווו
המגורים
160
##رب
הקיימת
##оп
##וטי
האבות
יעלו
##מותות
המפרץ
דפנה
לנקוט
במידע
themarker
במפורש
לתשלום
לפח
##מרון
שמדברים
לקיר
החשד
1977
סגורה
בקרבת
קטגוריות
כוכבי
לשמ
יאמר
##يل
לפגיעה
מציגים
המצווה
מניחים
##ילתי
ארכיון
הבחורה
כרכ
יוזמה
##בחנה
הגבוהים
בראון
dias
היגיון
בליווי
הקס
איתור
שומרי
והסת
מוציאה
מהראש
##ללה
באוז
jas
מזגנים
חנן
##תייחסות
ראשל
לזוג
שולט
טיר
מוסרית
##מאר
##ubl
##קטין
בגני
אופציות
##עלה
אזולאי
ורוצה
להקפיד
הלחימה
דבורה
ההפגנה
מבריק
##כוונה
microsoft
playlist
##מפרטורות
תותח
בדקו
החכם
בחזית
יהא
ההוצאות
עצות
שהמו
מעניקה
##נסטרוק
מצע
ובאמת
הטבעית
בהסת
מקדש
ולחשוב
חיש
מלט
קוזי
גילי
אידיא
האינס
בארון
נכב
והרב
מעצרו
##ре
חחחחחחחחחחח
##ci
face
לוס
מסיים
צרפתית
תכלית
ומוע
ושכירת
הקסם
ובגלל
בהקדם
חולק
##ודרים
הסמוך
אוהדים
פטריות
לוט
ואינם
gen
##ריית
yes
תורג
בועז
השגרירות
פעלו
השף
🇮🇱🇺🇸
##שהות
העדר
שריר
##מצע
העירוני
הערעור
##ציבה
באם
לווי
במחלקה
שמועות
נפרדת
ro
##аци
מניחה
וילונות
##лу
##ארה
החודשים
אייז
הובלת
לנגן
ותקרות
המני
לעצמנו
נהגו
מורשה
##רוט
נפלו
במוסדות
nah
הרגשות
צחקתי
מרגשת
נחשבים
נקיון
הנדרשים
בסרטים
בכוחות
נדירה
הכדורסל
для
live
במצבים
הסינ
מוי
בקד
מבטון
כיש
עסקאות
hp
##69
במסיבת
צבעי
הכרטיס
our
הנייד
חרש
##נהגו
מהמת
##פרייה
חמאה
##וכנן
קדושה
לשחרור
בקמפיין
יציאת
מקדם
בלו
המכש
להתפתחות
##ומטרי
שנוס
##נחת
מסתכלת
הנבחר
בסד
##ליין
בעבירות
האגו
אוטובוסים
ישבו
בתחנה
גוא
ואילך
##ותח
ציונים
בצו
בתיאטרון
תמלול
מסויימת
שרותי
בעק
##רק
בארבע
מיכה
בספק
##ומחים
השלכות
לגדל
עורכת
##איים
סיכונים
תשס
במוצ
##טויים
המשורר
מתפק
##גמה
הגדרות
הכרחי
להעיד
הנאשמים
##נרלים
גרב
##uct
אמונים
משדה
פרד
##גבר
שונאים
##eting
השמלה
למכללת
להבהיר
במהדורה
##ople
##רית
מצחיקים
בבא
ווט
ולמש
##שוי
נרצחו
בעונת
##ca
##טאפ
עשרת
##בסס
פרצה
גורל
##rator
##ופטים
sim
##63
מסבירה
השכלה
עוגות
😍😍
המשרה
##😭😭😭😭
אורית
##ףףף
שמם
ההסבר
מלש
בעשר
להתלונן
נוחים
העובר
להשתלט
לשו
אדומה
הגיא
הנאום
##אהבה
עולמית
שכאשר
בוטיק
העולים
בפורום
האוהדים
ירדה
דאז
לקבוצות
גומי
תירוץ
##סססס
הפלילי
there
שנוכל
##לאמי
מובהק
לשכב
##מסד
ואמא
הכתב
הספה
כתר
סלון
לקהילה
מרשה
נרדם
אצלה
המיסים
בקרת
מנהיגים
##פלל
חיוני
ברה
שנכתב
סיגריות
רבני
##פארת
900
החשודים
שהופך
מדויקת
המובילה
מבש
אסיר
אינך
כחצי
נטייה
תפילת
מצו
##נתית
##לקל
לפגישה
בוגרי
הדיירים
שרע
גירושין
רזה
ההכרה
סגול
האוט
כבלי
##צונו
ביפן
באיראן
עזרו
##טינסקי
##נהיג
המרד
וחזר
לכתב
תיבות
משמשים
גס
##ror
ומדי
מחברות
לבעיות
עזרת
nba
לגבות
הביצוע
מייסד
ליישם
mot
תשמ
saf
נחזור
בבורסה
צחי
עסוקים
שחשבתי
morning
kh
שוחרר
##يا
ואינה
להתנ
נערות
##ition
שנותן
צועק
קובעת
גופות
אגם
התקיימה
אינדי
העו
תשאל
והפי
##דדדד
שעובד
##😡😡
מסתכלים
לעיני
הראה
##יגות
ההבדלים
ההנחה
לבנק
הצג
##זרעאל
הראיות
מתנדבים
והפך
לקחה
בשכר
##טרל
##יתונאים
כוסעמק
##זמות
מתס
המסמך
איים
פתחתי
שנערכה
לקרב
מכבד
סושי
ההסתה
וקו
מתמודדים
הפסוק
ישלם
don
חסן
##ration
מקס
ממול
##וסיפה
##יונו
##ורשים
רעידת
חיסול
פוטנצי
להמתין
איב
שמט
עוה
אביגדור
המתא
מפעלים
להתאבד
home
בטעם
הריסת
וחבל
נתקלתי
herz
##זענות
##יקיפדיה
לבטון
אקדמית
תסריט
המנות
ירה
הגדרת
בראשו
כוב
השורה
##אונות
כועס
נראות
הכתובת
how
בחרה
מחי
ייחודיים
ביטל
שרציתי
החשובה
ובהתאם
שהגיש
גלם
שעליה
עניי
משובח
אבד
הפסטיבל
דוחות
עצמות
מאתנו
טלי
##קנו
מתרחש
שיוצא
נמצאות
החזון
לאיכות
האהובה
הפופ
ומשפחת
יהודיים
חומה
וושי
זולה
החם
הימני
inf
דייו
ניידים
תחשבו
##שיק
אנדרואיד
תגיות
שטרם
סתום
מאפיינים
שמתע
מתקדמות
שייכת
התבט
מרזבים
והתח
האינטרסים
##צמן
בשבט
וללכת
##ube
אנרגיות
משתתף
פאל
##שלמת
אתיופיה
להמליץ
##رد
שמקור
הסברים
פורץ
##ност
ושום
סנ
שכם
##גמים
mark
בקבוצות
ts
##יסטן
המורדים
##אלור
הייחוד
מקרר
vis
##יינוס
people
רומא
הברזל
מצור
חקלאי
בזי
וחול
וינט
מסייע
חדד
בפא
שרירים
בדיחות
שלילית
##בוס
מתבצעת
בוגי
##יווד
יבשה
הועבר
לצרף
מכתבים
טמבל
האיד
קחי
אורות
##ציו
בהחלטה
##line
הקרו
בפרשה
ואמרו
הסוכנות
מאושרים
מקומיות
##שיבים
בכפוף
מצויינת
שותפות
נקראת
גמישות
הטע
אבטחת
נפוצה
אבקת
זז
הראשוני
תאמין
השירה
גיבוש
שוכחים
אורגני
האמון
לאלוהים
הורשע
לנזק
בלילות
השחרור
ניסתה
וקס
חסיד
חקר
מפעם
מעמ
השלמת
העימות
במעבר
הבטיחות
מוסק
משחר
##פליקציות
מנוי
##קשו
פריט
היכל
הרוק
קרס
בחומר
קורבנות
הצמיחה
ומבורך
המתנחלים
##נגל
הסופית
ness
ta
בדימוס
פנחס
השמו
גמל
במודיעין
##מיש
##יקל
יצטרך
רחוקה
נזכרת
הלוחמים
לאיבוד
##גיות
עלית
וביוב
גאולה
תרומת
במחלקת
מסויימים
מארק
הערכות
##ייטק
##טרא
palestinian
גבריאל
כרמיאל
לגמר
win
יזם
סוק
##יינט
מכובד
כהה
מתייחסת
##זום
דיברו
עיוור
לפניך
ממון
הטבות
אסטרטגי
המזגן
הנקודות
מאין
רוג
ליאת
נחקר
סאונד
##וררת
וקיבל
##צעו
תיהיה
##ilat
ינון
רמלה
##צמת
##ומניה
גאים
אופטימי
תעודה
##מתנה
##פריע
לענין
לקור
##דיבות
##מצת
נקיים
למקור
הוכח
חילופי
תוכנת
##צמו
##גז
חובבי
ולעתים
##gen
הצער
ra
תחזית
ספורים
וטיפול
הרשמית
המטען
##itt
האולם
##זרחים
בנינו
החופשי
stud
ההמ
##סקנות
rem
##מען
תפילין
الع
לאילת
בכותל
בדור
משעשע
מכור
ברמלה
בתר
באתרים
דש
stop
##הההההה
גדוד
התפשטות
##וליג
##טגיה
ופור
לזוז
לעול
לבה
יריעות
לקיום
בצדק
המתוק
מרוכז
ins
שטרן
הברכה
מהירים
wom
103
לקה
מכוונת
מומלצים
rel
הסוביי
##מיס
sur
החזקה
היעדר
חולשה
במעט
##סקבה
הציור
netanyahu
הקונגרס
רצונו
לטור
סמכויות
##מטרי
נשיקה
##ная
המתל
##קרוב
אנכי
הופת
משוע
משמעית
הקוראים
##מצעות
ושלום
עמנואל
מגיש
מחמוד
וושינגטון
תמיר
מרכזיים
##פתחים
החשיבות
##כנתאות
סכסוך
וכתב
الق
ובפ
בהפגנה
יומית
##גוררים
סקירה
##רכיט
תומכי
מרפסת
##סיף
##ובתו
##חדו
##צנים
יזכה
החקירות
במייל
ולט
באמצעים
שורשים
מסוכנת
ההתיישבות
בונוס
##cd
מגמה
##79
לזוגות
מפורט
הופיעה
מסדר
הפדר
##طر
כונס
לתרבות
בשואה
וככל
בלוח
דעתם
הארצ
הסגנון
מלאכה
לפור
הקלטה
##אלורונית
הדרושים
נטי
סיפון
ונצ
9c
אלוקים
בסימן
##צאפ
##פיסת
גבעתיים
במלי
להאריך
##vd
תבינו
##חתית
טיימס
האינטרס
שנותר
##מונד
שכולנו
הצלב
המנהיג
הסכימו
בהל
נשת
פראי
##פרסמו
איזור
##vr
##דהים
להתנצל
האמצעים
אלמוג
שכתבת
##לויה
בחלקו
לואיס
מנצחת
בגוד
בארג
הגאולה
עדינה
ומתקני
נעמי
הייחודי
תשמע
בוושינגטון
נלחמים
best
לעוף
##play
נצא
ביקורות
מצייצת
תלמד
אחיות
מיע
תקלות
אבחון
חגיגה
לעובדה
עבדתי
קלאסית
להיא
להתווכח
ולמצ
העניק
בנתיים
רוסית
לבזבז
הליבר
כתובות
הנהר
כיר
שמעתם
המובילות
##ינוק
בניינים
להפך
משמרת
סוסים
מיסים
הנישואין
מתקשרת
ונעים
וכלה
פטר
סוו
השביעי
ib
נוד
לפנינו
החובה
לעניינים
bra
שוקלת
מטומטמים
##חום
הסוכר
שהתקיים
##יקן
מוטיבציה
טיב
האהובים
קמא
שילם
ומסל
שבחר
##כיח
שנעשו
בהוצאות
הוראת
חיכיתי
##stem
##פלו
כסא
##פילי
##ועות
העותר
משקפיים
משוגע
##זרות
הרק
צדדים
חכמי
שתוק
למערכות
פלשתי
בקבלת
מתבצע
לחלל
##ודשי
##נאט
הקופ
התאים
מלמדת
הסרטן
ברבע
ist
הפקות
סיכ
באווירה
משאבות
תרגיש
##חזור
והמא
עירום
צמחי
הרפואית
##שישים
עמודי
מוכשר
חילוני
טבעוני
אימ
היאלורונית
ריבוי
1988
במחאה
נישואים
מכניס
מעוררת
052
פרסים
עונים
##גענו
##טוטים
רבא
##נרית
##וכנת
פוליטיקאי
שריד
##כללות
##chan
הדס
מאכזב
##raph
רובינשטיין
תכנ
לחבק
##חרט
בבירור
בווע
##תתתתת
לסביבה
ירק
פרצוף
דיז
פדר
##סטור
צוואר
##ורדים
מהפר
מאמ
בנקודה
ותשתיות
jewish
##מלך
הפסיקה
קמטים
רוצחים
הורי
עצה
מפשע
1973
בולבולים
eur
פוגש
תעשיות
ראיונות
חשבתם
ותס
מאופ
הירידה
mi
##וארמה
הדתיים
חוששים
לליכוד
הציפור
למדנו
1989
לשפוט
חסרה
פנתה
##оры
כיתות
לפייסבוק
כיסא
עדיפות
מגובה
yaf
שהמע
הבאת
הפתוח
לזר
חשף
מעתה
השכירות
לפסח
בנין
באתרי
שלמרות
מכול
סדרי
בגדה
האמא
ירוקים
המרכ
נאצים
טייס
added
לפוסט
ולהגיד
בנאי
##שימו
music
##רטווט
נרק
##רימה
וואן
##קסים
למלך
התלמיד
לציוץ
##גרית
תישאר
הכב
##ula
המתים
משלחת
כנה
hasharon
פשרה
מעמיק
דונם
יודעות
##יהום
מחאת
רגשי
לעולמו
העלו
הגיבור
עניים
שהוז
הבנאדם
תעסוקה
בסרטן
##טואלי
מודרנית
waz
מהלב
המתכון
ענבל
תמצית
מפסיקים
טיו
וכא
תמים
גרסאות
פניות
הנייר
אשל
הפרחים
מסוכנים
המזרחית
ואיר
ישראליים
במופע
רכיבה
מתמק
מאהבה
למדינות
שקית
סרצ
להשתחרר
עפרה
##ולף
המשא
##צחים
ותמיכה
כללים
בעדינות
המרכיבים
זכיתי
החשיפה
קורבן
##ומטי
מיתוג
אודי
דינה
להקיא
התחלת
המושלמת
בונ
פסטה
מעוצב
למיניהם
חלבון
שימור
מקווים
##והל
##قتل
הרחוק
בייחוד
david
מתוע
ומדו
גרמנית
פסקי
העצמית
##רוסיה
ההכנסות
צום
##דני
הנהגת
עתיק
שלווה
בעיניו
להגביר
הנשימה
מרהיב
##ism
שולי
##ציוני
הדמיון
קנ
da
ששון
אינטראק
##ах
הוכיח
##מטיבי
##ream
הנל
היפות
בריכות
המקובל
להשמיד
##иф
בזכויות
מחזיר
הדל
##מעים
איוב
##מדיה
באלימות
##ברנו
בשלה
שוטפת
##טיפת
להודעה
ובדרך
ברוק
תחל
##אהבו
הווא
מגעילה
מקה
בסביבת
##לולות
ליפ
פוליאתילן
שוכח
הנרי
##בחרים
שאליו
הכני
וכלי
ותרבות
מהבוקר
אלוה
אספר
ותא
מתנחלים
מסרט
נוני
הפרטית
האופרה
לכביש
כלונסאות
למוזיקה
אאוט
ומנסה
htm
עצבני
הרך
תהנו
מוזרים
החטיבה
ps
תיבת
##ודור
##מיקלים
טז
להתרחק
גוב
מאותה
מעיר
##ארות
לביקורת
בבעיות
לדחוף
##כיו
דגמים
שיודעים
בשמים
שנז
תרח
מהפי
העצים
להרגיע
מימוש
##כניקה
##שטות
שטיינ
שכנגד
##וגיית
להלחם
##וריד
בדקתי
רובין
##נבול
נחמה
לתהליך
الاطفال
אילנה
##חיטה
##ליאם
העז
ממור
##לחמות
##ליקון
הלאום
נוסטל
המעסיק
בשדרות
בעם
שפחות
בנד
הסעות
המנוע
ביהודה
סיפרו
שמיי
מתנגדים
יונייטד
ay
##וארים
בימין
המקרקעין
נפגשו
המצוות
מקרב
הישרדות
בעבודות
הקשורות
תם
##uction
לחקר
##יהור
##רגנות
סנטי
בלוד
הלבנה
שייכים
##סיבי
אדלשטיין
מארץ
יורדים
אלשיך
הסכמי
בנסיעה
מילר
התכנים
##ניחה
חלי
שמנסים
האצבע
פיפי
המרחק
##ич
##צלת
##ott
##ילוט
סטטוס
מהמדינה
הזמין
הנצי
ניקול
החדרים
קודמים
תלויים
קסום
icc
##iber
ובמקביל
eg
סכנין
עטר
הפארק
##מטיק
נדחתה
حس
##ollow
נשות
##טתו
עישון
##akh
כחודש
בוואטסאפ
##קדמים
שלבים
##פיור
##ual
שאיבת
לאירופה
להפליא
שהחברה
יעבוד
המנהלים
שבדרך
כשמת
הצרכן
נרכ
וקור
בשנייה
##ели
החוג
##נטין
##סטון
החזה
תאפשר
##ולדה
בזאת
בריכת
בגלי
ולמי
טיבי
שיוכלו
המפגינים
בעובדה
הרצועה
גרעין
##form
פרדס
משמ
##סיכ
##pg
##פקתי
שיצר
הייטק
חיפשתי
לפלסטינים
הממלכה
העתיק
הרחק
המשקיעים
ורצפות
po
קנאה
מדוייק
##kel
לפעולה
קרקעות
הפיקוח
יפי
##اد
li
בשבע
אמצעים
צפונה
מסכנים
האביב
לזכרו
פעילותו
חוויית
להסתפק
טומ
##סטאר
שכבה
##בורד
הסמכות
למגוון
בשפת
משקאות
לדפוק
##נחלות
##ראג
במגרש
חשבת
ממשק
קראת
mu
כנסי
בוטינסקי
אבנר
נקווה
המיוחדים
ולהמשיך
##ave
מישל
הקולות
בזהירות
מתפשר
להפועל
הפופולריות
וגל
מקורית
מתעורר
##כינים
החצי
האמנים
עבאס
האיסור
הלשכה
עמם
קרל
מעבירה
##פגעים
##ניינות
המערכות
##פדפן
иер
להיפרד
שהוכ
כולי
##פרסו
מונופול
צביעת
ונגד
##ats
##ел
##74
יוצאות
##ily
והרצ
##סקס
פריצת
sam
היקרה
מדגם
ושב
קודמות
##04
קציר
חופשת
סנו
##בעלות
הפורום
##זקת
רווחה
ואמרה
##ילתה
טיפוח
העוגה
ויטמין
call
הניח
##bo
ההליכים
איריס
שעמד
לכות
שכנראה
הנורא
##טפו
בעיראק
לפניכם
סגנית
##ראן
העמדה
השמ
אנלי
לטענתו
בלוקי
בבן
שמשק
וקב
שופר
##גשם
##טיז
מנקה
וחת
##алим
לאול
חוקיים
##צאט
ומעבר
קשק
חסרים
עדה
ופס
##ישו
##פלט
וממשי
ולהי
בעיירה
קבועים
לפטר
##בטחים
המגע
הרוחות
president
והשו
נתח
מסחריים
##כרי
התו
צייר
##fer
hab
העוני
ביער
לשולחן
שבמה
מיטות
לשלוש
בסיוע
לצורכי
בטבריה
לבקשה
אמלה
נותרה
המאו
מתוס
שמתאים
לאוויר
##ישי
השג
האירוח
צמנטיים
لا
##צעות
להתפתח
סיגריה
הסכנה
הדרישה
הגיר
לחסום
העיירה
הגביע
שחקנית
שחייה
שחזר
##שאר
##זרק
ענו
שעובדים
הכריזה
זכאים
בלונדי
רוחנית
גיטרה
הרחבת
ביצועים
sepa
להגשת
לשתוק
ההריון
שרבים
ניצולי
מאזור
לובשת
מעודד
ובשנת
1986
system
מעצמי
מתנהל
לחד
המתחם
קופות
kills
סמית
חלוקה
ורואה
בודקים
אפוא
מעשיו
##מולדת
למועדון
טב
בצבעים
##ניא
דליה
בנקים
הרצי
קיצור
##מינר
מעורבת
לרפ
מוסלמי
המחלוקת
קיבלת
ארגנטינה
חדה
##ye
בהרי
##усалим
##פילים
##חיק
נאצי
טרוריסטים
הקימו
##ож
פיה
иерусалим
##יצת
לספור
ההקלטות
הכרת
הרעש
נלמד
ידידים
שיכור
הצמח
ca
מציינים
המסקנה
בפסח
שלכל
מהגרים
##ls
שמתק
הכלבים
מנוף
עבדה
נשאל
שנהרג
##קשור
##ift
תערובת
##oube
עוזרים
##ii
תיכף
מילואים
jasoube
##ויין
אסירים
##טרקציות
השטחים
שצריכים
שלעולם
שהלך
הנוגעים
##יתוי
וורד
מהרה
כשצ
הפרעה
ביקום
שביקש
האלוף
הנז
הפכנו
מרובה
125
גוז
הירושלמי
nrg
##כתבים
##יהנו
קשיח
המושב
שקבע
הליכי
דאג
המומל
שהעולם
mal
ומיי
##ould
שאבא
הקצב
טוני
##נועי
אברה
##ינוחים
אינסטגרם
לילי
דייט
סופה
שתוכל
המקרא
שנחש
בקולנוע
may
##из
המערערת
##פורמת
שהאדם
אקדמי
הפשע
##דתם
הפסידה
בתקציב
מהעיר
מכנה
מעלי
ידעת
אבוק
אנטישמיות
##נבאום
חכי
קונג
ארבל
עודה
קולומ
מחוס
פקיד
במועצה
ואמרתי
##קוין
מתחבר
פרשה
סם
מטפלת
קלוריות
לתכנית
##ופיים
##ование
העומדים
בצפת
בהשראת
יישוב
להתייש
עניתי
sn
ניירות
מלמדים
350
tit
לחפור
לכנס
אמיץ
כריסטי
ка
בהשק
באקדמיה
לארצות
ברנר
המעמד
במקרר
##צרט
חתמו
ניהל
פורת
##לויים
הזוכה
##לינים
ורבים
היקרים
לקי
##נחיות
במלא
גדלים
יעברו
חסרות
לחיזוק
הדיווחים
שמיים
בעיתונות
רוזן
הסיור
##עורי
##טרפו
##ил
חתונות
לימודיו
לרמות
##ett
החמה
ste
להירשם
מבודדים
עדכונים
תשאלו
ובעקבות
מחדל
צלעות
לוע
ומשמעות
חובב
##ml
נולדו
מנוסה
מרתון
تقتل
מקבוצת
##theroad
מתקופת
שרב
בוגרת
לעזה
##יעדר
##73
ציפיתי
החתי
ללימוד
##igh
לסג
##קדמת
##ые
מכילה
הפנט
יחיאל
והמצ
רשאית
במשא
הקברות
אפליה
הפוליטיקה
מחשש
פנייה
שהולכים
לערך
ומחר
נקט
החשיבה
בעשרות
over
ממשלתי
רבו
##au
הפסיק
שלטים
מתבקש
שמרו
שבסוף
מבן
החצר
הבכירים
ניתנים
הארצית
##😹😹
רשיון
ההרכב
##רחה
נוסעת
##ארון
אינסטלט
##ליץ
ההוכחה
light
ברוכים
fam
להכריז
שבצ
חרף
##וטט
מתקיימת
israelneedson
##נפים
העצום
מטופלים
עימו
המוצא
שכחו
בבחירת
פיז
##דהה
ההתנחלויות
ממזרח
ייקח
בזירה
##נאפצ
עגולים
##שמתי
קיצוניים
##ואלית
הטיל
אבישי
שנאת
מובא
לבור
##ски
סווי
בקהל
צרה
ברצועת
המהווה
שממנו
##קהילה
מהחברה
short
שיעשו
שוות
הסגל
הגה
##4israel
הכשרת
##פויים
פוגעת
פגישת
לקרקע
הקשיים
דנק
web
הוסיפו
ללוח
עלים
מקסיקו
תכונה
##רופה
##ines
si
שהרג
##מידו
החיסון
الح
ואדי
rosh
##ירותי
בסוג
##ices
דואגים
##דקת
שעבד
האתגר
בלוק
##يم
לשרוף
טרג
##גיח
האסי
בהוד
הרפורמה
שוורץ
געגועים
##נומיה
לניקוי
עשורים
##נדרטים
שמול
תבור
##gh
ערכו
מרתקת
תלמוד
התוכניות
תחושות
ההתפתחות
##מפט
בוועדה
הביטחוני
##ги
המונית
##נבים
בחומ
הבינה
##שראה
חזית
##рав
תרבותי
בכירי
104
##נגו
צפה
ובט
העשרה
yafo
icc4israel
לבטא
נתבע
הביקוש
##ai
הגע
המטבע
דיבורים
האיפור
cons
הופיעו
וחוש
יחזרו
מבת
בשמי
משפח
לבניין
ונוח
כועסת
ואלי
לדרום
יאהב
##ness
ייצא
הציגה
##חוב
##נחנים
לכוון
##me
about
סוגרים
צביעות
תרד
1982
אפריק
שקטה
ריקלין
##ss
השגריר
השכן
##כיפת
מגדר
aut
לצנרת
ביהדות
ופיר
בתיה
בפול
מטיילים
ניל
לטבע
##דמית
בתפ
יהב
##phone
כשק
מחלק
הקיימות
hel
מפורסם
##מצו
יחל
##ank
נטול
בקריירה
אפרו
##ודק
בעול
##מאית
פינס
שהחיים
שהגיעה
סכ
בתנ
נרשם
שרית
אראה
##וררים
##טיפים
עבורנו
##ופשת
מרחבי
הבצק
נון
פורטל
הניתן
הורד
להתקבל
חזקות
##דין
הסלולר
##פרסמים
red
##וסקס
יתנו
המילי
bat
זרות
העיד
רציונ
הגרעי
בעוצמה
##בקרים
life
הקניות
להחל
הגלגל
מחנות
הקיום
##oud
מחליפים
נפשות
##ונאים
צבעוני
גבה
ציפוי
והתי
התודעה
מעזה
טמ
צבאיים
בתחתית
div
ומתוך
כנרת
מגנה
רחצה
מלכים
הדשא
לצערנו
וויי
התאבדות
שכזו
מנדל
ולהגיע
ושאל
בזבוז
משוכל
עצרה
עזי
הדרוש
המועדף
לאוב
חזות
3000
אזורית
כהונתו
##חחחחח
##טיסטיקה
בלע
separator
מהדברים
תקינה
הקודמות
אחותו
##מינ
ומעולם
עמותה
##ירא
גלישה
הבהיר
קפלן
איטי
נעלמו
##מלאים
חצות
החזרת
ההפקה
ערס
לטרור
ששני
israelneedsontheroad
הרחובות
צביקה
זכותו
הכשרות
##פורי
מתרגש
להתגעגע
דיגיט
##כפת
##ילדה
קנייה
ירושלמי
וילות
בלונים
וביום
לאינ
לתורה
נחמדה
וות
גרין
התרגום
##עץ
סטיב
הפתעות
באבן
##חקנים
המגמה
רשע
לייצג
הדדית
לתחנת
link
האופי
קוש
עע
בסופ
גולני
תצליח
כבת
רצינו
תיב
sw
от
##כחים
inv
חיסכון
קדש
ששמו
##סתה
ציד
##וסת
רווחים
חבלה
##ומחה
שקיפות
##חדל
בנשק
כשמישהו
170
רצים
כשכל
הדלקת
המדהימה
##וניו
כריס
הגבולות
ולהפוך
##ور
שמיעה
ושק
שאותה
##ения
##יהנום
במפלגה
בציוץ
הבטחת
##ион
החלוקה
המבוסס
##אימה
שיפוט
הקת
לאנגלית
בקרקע
רוחות
##בלנד
בסע
105
##וסס
דפים
##againt
בכבי
הכללים
פרל
הטרא
לרשימת
המנדט
ав
hy
מוקדש
tlv
וחלילה
##רכוש
טניס
למבנה
לנשק
סיפורה
##נורות
במשחקים
לקירות
הגשר
בתרגום
הפוליטיקאים
משלמת
ובסופו
נכים
בקריות
למדה
##פסי
משתמשי
##againtour
נאסר
מוגזם
##ms
##גום
קיסר
##יוניות
פוח
gat
התראה
הדמעות
נכה
המבורגר
##рат
ומגיע
מרווי
בשש
##חינות
bir
במצעד
היכולות
בהפועל
gan
##אסר
##ותרפיה
זילבר
יעקוב
תפתח
##גדיר
בלאט
##لا
קייט
со
וקול
בלעדיו
מנצחים
##סנל
באינ
האקדמי
##פידים
מסקנה
הקולק
להשגת
##כשירי
הדברת
מפגיעת
##els
לאינטרנט
התייע
השוקולד
העלתה
ביוון
##יתוך
התלמוד
סייבר
ושיווק
מגבלות
##ביבים
הכיוונים
הועברו
משב
הוכחות
הספרדי
##ירותו
שניצ
ant
בוגרים
אנסה
הובילה
הקבינט
מכניסים
נתב
##ital
נושאי
לגנוב
בגבעתיים
נהגים
עשויות
יזרעאל
הרישום
##חקי
##גדת
לידו
מלכי
מחסומים
kfar
מאשים
ואבא
למשתמש
למלון
הטבעת
##ושופ
##צרפת
ההלוואה
הזרים
זקנה
בקטנה
האותיות
בפירוש
נקבל
ios
##gin
חדי
השפעות
בתערוכה
מעמדו
בחוות
בינונית
המקל
שהביאו
המעשים
יקרות
eilat
להפריד
בסיסית
##פסקה
מלכ
dim
להעיף
קרבות
מתיי
mer
שהל
מתנצל
##קסון
לארח
מאס
הקיבוצים
אגדה
העסקית
ניראה
vs
##וזב
bre
##ולב
וחברים
##טהייד
הבריאה
סיוט
חבילה
בתעשייה
זיתים
בחינה
sal
טום
לצפון
התחומים
שמותר
הנבחרים
##ally
התעסוקה
ילדיו
וכות
האלקטרוני
דוכ
חייגו
פלד
תדעו
יות
שעלו
##fr
##land
הרבות
ear
##בחור
באפריקה
בשיחות
##ילב
שרמוטה
העותרים
הענין
##זעת
והלב
engineer
מחזק
ההתנהלות
סלקום
##חחות
גולדברג
מקיים
##ject
נשואה
שימי
ואב
התיאור
##וסטים
##76
מתרחשת
הקירות
והדר
soc
לקלוט
התעוררתי
##ush
מחייך
המוכרים
מאכל
הגבלה
##72
פוליטיות
לראיון
להציב
##דותו
מתקיימים
בנכס
גאוני
שבוצ
##מיך
הומואים
לספרות
הלם
ובראשונה
צעצועים
בסיר
תקפו
##לילות
שגד
##פשות
סעיפים
נורית
הבריכה
נקר
המנוחה
הדולר
ליבה
ואג
מינים
מהפה
התחזית
בסק
##מייל
עמל
מרוקו
באיס
תפר
מאנשי
מפיו
bi
השטויות
מתמודד
##בורות
וחוץ
מקצועות
שהילדים
לתמיכה
דעתכם
##ריכו
תרבותית
ff
מייצרים
ניגש
זמינות
ממשפחת
בלשכת
##ריאל
למטבח
נגמרת
טחינה
##וחו
נערכה
הצהרת
לשמח
1981
להיעזר
מגדיר
ערובה
##וביה
עולות
קווין
וקירות
הדרישות
לשחקן
פרנסיס
ההרים
שהצי
הלחם
האירופית
תהא
פשוטות
ההמשך
חיתוך
המתב
בגרסה
טבח
##צוג
האתיו
האכז
מזכירים
החלקים
לכהן
##קסיקו
הרמ
להיט
המכיל
לשלול
הכושר
זרוע
brac
השיפוט
##בנת
לעובד
הפרטיים
לימד
בברי
##מכי
##ches
הדמוקרטית
בצירוף
התעללות
הידיעות
##יונל
רחוקים
היק
sil
##יוור
שייק
ברקוביץ
בפינה
##צף
ערוצי
המדרגות
שממ
גורדון
אכילת
הארון
לחתוך
מדאי
##חסור
מחויבות
##39
הפרש
עורכים
stronger
למיטב
##שבת
החופשה
חמורים
##חורי
מותאם
הרשתות
ההרוגים
מיכאלי
והולך
החיוב
רומנטית
תחש
שלבי
ברז
##ליגנציה
חמצ
ליבו
סינט
##נדבים
פסול
סאט
בנע
ורוח
העירונית
ובעצם
ul
השמונים
מדבקות
השמאלנים
בהפ
1987
באישור
עירונית
נראו
##סול
טכנולוגית
pa
ישנות
ביטחוני
##סיסים
אלע
שהרבה
מצויים
בכלכלה
god
יעדים
תפקידה
##נגדים
##קמת
מבורך
דיסקר
צרכי
בווצאפ
הספינה
הנני
##יאלי
קצינים
כיפת
יפגע
ככלל
למפלגה
המלווה
והחז
בושם
##קלטה
הטיפולים
מייצר
big
שחסר
##enez
שגי
##ייבה
קמפ
הרומן
1970
שלפי
טריים
##ما
להתאמן
מרכב
גלריה
מבה
אוזן
ביצירת
תתי
שבנו
אקדח
תובנות
##כיון
והצי
מיותרים
##נקל
תואם
מוסיפה
שניסה
רפואיות
התשע
הונגריה
וארגונים
באנו
מעניינות
הצילומים
1985
וקרא
##xy
חמץ
בריטי
גורן
תיקוני
שערך
tik
מבד
משווה
ועצ
כהנא
נכל
לשק
##יתונאי
לאיס
##לקום
הכלבה
לפיגוע
נחתם
חושפת
##מלאי
ייו
9e
וחסר
מהציבור
משוכנע
לכוחות
יציבה
##גלס
מנוסים
וליהנות
הגמרא
##פיט
##רטי
שביט
התאריך
סופו
הפרקים
back
לחיס
ששול
מערבית
ומדוע
##אותה
לשניים
##וקרט
חסידים
הנפלא
חלפו
הקבר
מיסוי
לוגו
שאותם
manag
חוצה
זקנים
סבורים
##דשטיין
מעידה
החתימה
עידוד
דרישת
##49
תתן
תערוכת
התסריט
הנצח
הגופ
على
כמד
##חותי
חחחחחחחחחחחח
##lace
שנכון
הפיזי
השבועות
גלית
נערכו
ולדעת
מהמר
קבעו
השאיר
##טיחה
השביתה
וראשי
המגן
השלמה
מעוצבים
יליד
##אויות
רובוט
לשכור
שרבר
אגרגטים
טובת
המן
##דתו
איכפת
ספינות
הנעליים
שחם
שבגלל
##ric
בסמים
שגורמים
שלשום
משפחתה
בניתוח
אדמת
סקרים
מבטא
today
המלוכה
עבודתם
רום
לאות
שבכלל
ההפגנות
מופתע
sheva
דורית
שבמקום
דמוקרטי
בהפר
הידועה
##ובעות
מנעולן
ממד
חלבי
שבטוח
חשבנו
##يب
##אדת
ההסדר
##bl
מהסרט
לאשה
ההכ
הלמידה
##כתובת
תט
נעלה
שנועדו
יהלום
מעשית
בזמנים
למצרים
באירועים
דיסני
##px
ועבודה
בנוכחות
וחלקם
לאסור
ניצל
##ריהוט
tag
שנערכו
בווי
יהאד
מקנה
הארגונים
סינג
##שלי
בענן
דואגת
שככל
idt
הבורא
לזיין
מהנו
##ייעו
בגז
לפתיחת
קנדי
מסכם
סוגר
לפרגן
venez
סבר
הציונים
gm
במעצר
##וממת
##פתחויות
ואביזריהם
מעי
מיועדת
##יבית
הבאתי
led
##jour
##סך
חנייה
##ones
המדיה
נשארה
האומץ
##ואיז
בוחרת
גולדה
הגרו
##وا
הפלאפון
שפס
הרוצח
##סטו
מלהיות
עזריאלי
שהוביל
1945
##וגג
je
גימור
jewel
סיעת
שגב
מבקשי
וליצור
עבריין
להעברת
ומערכות
##гов
בניון
הבורסה
מסורתי
סידור
צימר
מקנא
הסערה
ובלבד
היומית
קטעי
מלפ
הבגרות
ובינתיים
בנאום
ההתח
פסיכולוג
herzl
תיקי
לפרט
המעוניינים
זיכרונות
המפקד
מארה
ולהתחיל
החני
מוטב
בכלים
פנינה
יונים
שליו
חזיר
here
ממצרים
קוקוס
למצפה
שבעים
בדין
פוסטים
המאמץ
שאור
בסכנה
##ירב
מכרז
ומכל
מתנהג
כוחה
האצבעות
הגדה
ערכה
אגרסי
בנתב
מתחום
##יאונים
הקבלן
##פטל
הסיני
book
ss
ולנו
המבנים
הזמינו
ימצאו
היחידות
follow
##אלק
שחיים
התגייס
##👌👌
ומנהל
##נינג
##ards
מותה
מפוק
his
והסי
##וחלת
יתע
הטבח
פרקי
נשל
אשכח
לפרש
##נהגת
##גיל
שבאה
תקליט
design
ישלח
העיכול
חלקן
זווית
מתפקידו
מקו
ביצעו
בסקר
ששווה
185
בבוא
אדיב
##mi
##פיית
קשרי
ein
הוזמן
الاسراييل
שמכיר
סינית
והובלת
לחייו
##ина
קאסם
בעניינים
tv
האפ
שתייה
בטע
ההיסטורית
cat
ומות
בטענות
שנמ
##צינו
שליחות
israelneedsontheroadagaintour
החכמה
רשימות
להפתיע
##תיפאדה
למשה
במוסד
מקיפה
ליתר
משקה
אלמנט
למכ
סמנכ
השבעים
אוקראינה
ארת
הפוליטיים
קורים
לחיפה
ודרך
ונותן
ונכנס
להחלטה
מפוצ
yeh
המפר
ופרו
וניסיון
והייתה
bracelet
הגעתם
פרובוק
##שמות
הארכ
נפתחו
יצטרכו
חנין
השמאלי
השדרה
עיתונאית
קריטי
##ירתיות
פשט
צעירות
##קרוא
להתנגד
מאן
וראיתי
ועשה
##חקה
להתכונן
##איב
אחראים
##סיי
##85
ודו
##ריזות
בתנור
##ציבים
קפטן
ישבתי
##פירות
מוצקין
מקרקעי
קעקוע
משנים
מנעולים
בבניית
##dod
בשבילם
##חלים
השפתיים
##כויי
ועידת
ינאי
הולכות
כוונות
יהודיות
סתימות
השוואת
בנשים
הנאצית
הדגיש
בשליטה
וגי
נגינה
שנפצע
ממספר
להאזין
הפשי
בנוסח
יתחילו
משומ
פרישה
שיתופי
publ
##לר
##דידות
נוהל
עיקרי
##יסת
##ih
בכור
מסדרת
נפגעו
הדתות
נראתה
לחשבון
##وم
מקשיב
הסיס
באחרונה
##ילויים
שימושי
במשרדי
למפגש
הביע
פרחי
##ריהו
סמול
השמי
שניצל
מלאכים
ושמחה
##ров
##ray
שיווקי
בטא
לדלת
המצרים
גופה
רלוונטית
יעני
בקבוקי
המחזה
פרופור
החזרה
עומרי
##36
תצוגה
##azar
ברזי
דימונה
ואומרים
ממכר
תפסיקי
ההפסד
הדדי
הכחול
קבצים
התרחש
סביבו
להתרשם
הסמים
מסתיים
למסלול
תרנג
למנכ
ובשל
אסטרטגיה
בשמיים
הנכונים
##ידם
בהקמת
מיזם
בדרכם
צודקים
сп
מדליות
##stand
##נעים
html
##נסית
לכרטיס
לבדיקת
הליכים
##פטי
לגיטימציה
בבדיקה
שיווי
##זאת
קרוא
ומן
תאומים
##ев
הכרטיסים
היוצא
איח
קניית
הזדהות
бе
צול
לטלפון
neck
##con
החכמים
לשירותי
##מקולים
בוול
050
ashdod
##יסריה
המעצר
##2015
המזו
ארל
##ורוב
קניה
מועיל
עומדות
רני
שבב
##רם
במחשבה
שמלת
שנשים
אולימפי
לקורס
תהילים
המצח
שהבע
נוגעת
watch
מחרי
נופלים
לילדי
ננסה
צליל
האבא
הזמנתי
זגגות
חולם
קרמיקה
קורע
למחקר
הקדושים
לכסות
ששה
קטנט
לוקה
עינ
ple
ייאמן
המטרות
הארוכה
ולחזור
##שותף
102
מנש
המינימום
שמנים
נראלי
הוסיפה
ביכול
גלויות
בשונה
הצלחנו
ששימש
שקיות
לבחירה
שנגרם
נחמדים
בעפולה
אחיה
הבדלים
לירי
בלימוד
האיטלקי
שפרס
##צוי
##ек
כוסאמק
משיבה
הקטל
חמשת
מדליק
המאגר
שכולו
ההתב
מגוחך
##גשו
לנוע
אבול
בהיכל
בירור
ועתה
שבבעלות
ציורים
##פוניה
המסורתית
החברתיים
##ис
מחודשת
חרם
הדוד
וכפי
המייל
##סיבית
ובידוד
המחשבים
ניסויים
##כוחים
לסל
דורי
ייד
ממדינות
מסוגים
שאיש
מלאכת
מהדורה
לדף
יצירתיות
התזמורת
להעתיק
פוגעים
##נומי
אינטגר
##ny
מתבייש
תרם
##נגוף
נמוכות
התקיפה
מגדלי
ביטומניות
עיתונים
מצומצם
שנפגע
נהנית
מדרי
##פעילות
##פיקים
מפיק
שסת
לנכון
ומאוד
בפייס
איבדתי
ביטח
להיפטר
עוקבת
אברמוביץ
בחושך
המחז
דוברות
באק
מהמט
מבעלי
הספקתי
רונאלדו
נראת
ומני
פנימיים
מזהים
##נעת
וצוות
אקרא
##שיבי
ממצאים
המרח
לשיעור
העדות
בכדורסל
##סיכולוגיה
ממוקמת
להפריע
גמלי
האזרחית
עלילה
קליל
נופים
##ites
1968
לפרויקט
##כנסיים
##df
שתג
decou
מחליטים
עילה
לטעות
##מנעות
הכיוון
במימון
הנפשי
הצופה
נגמרו
חוזרות
מייצגת
לחילופין
נפילה
רביב
העברה
תבערה
שקיבלה
האזורי
הניסוי
נפטרה
ידם
##נאם
הקלטת
יצרה
ימח
מורן
talk
ואגב
הכמות
השרי
span
בלט
חקלאות
terror
טראומה
##בדקו
שכירות
דגי
amer
מאיזה
המנחה
משלים
³ג€
##ур
עמותות
בעימות
צירוף
לידיעה
עליות
##כנולוגיות
גלבוע
במאות
אלקטרוניים
מציק
המפל
וייע
לאד
##ifi
תיקונים
למעמד
##איי
לצרכ
סוער
השווה
##גשת
לנגד
להרחיק
המנהלת
netanya
##יבטים
מודים
בשמן
ענבים
השרירים
תערוכה
התמק
ההודעות
התחקיר
ולהש
ביחסים
בידור
העורך
בעצמכם
الص
מחוברים
המונים
מדעית
every
תצטרך
דיג
מטבעות
##аль
##וסטה
תורמים
fin
וחבריו
שאיננו
##חקות
קריאות
נוראי
בתקופות
תצפית
אחרונים
דרמטית
החלוץ
זורק
אנימציה
הגדוד
מפרסמים
מאורג
מתנש
נדחה
ציינו
העיתונים
##מלול
כשלע
cap
מהפך
טיולי
מתכננת
שטות
##שרף
צבועים
סרג
##טריון
tur
להפנות
שמספר
דרומה
לבצפר
##ить
ארמון
מיומנויות
נוסדה
מגיבים
שרג
למפ
##vrir
החוקר
התרגשות
לפעם
בחורים
מעוות
נשיאת
##רוב
make
חילוץ
בהא
מקומם
דנקנר
בשלבים
טלפוני
ובנות
מגוונות
הארוחה
חלשה
וייצ
לתרגם
##יפושים
decouvrir
mig
ומרו
##פאות
עצרת
בתוצאה
מתורג
##עינה
להתקלח
##aut
ותיקים
שפית
והתא
המאור
##ירותים
ולצאת
בייצור
לטקס
ממושך
בזו
##נהדרין
שבסופו
כזכור
##que
שכונות
ברפואה
בבריכה
מתמשך
##כינו
המינוי
##itch
##ארטפונים
פירושו
שוחר
##צפה
קולו
##אנס
להכריע
האויר
ממוקד
ההנהגה
הזע
לשמירה
שמייצ
הנוצרים
##ווטים
טקסטים
##ומיו
התשי
אופקים
במות
bds
##דירות
מינוס
ברד
תקשיבו
מעבד
##בועים
##גדיל
ולהביא
##צינה
##כחתי
##еч
עיד
האולימפי
כשנתיים
1939
השכ
אוכלוסיית
בלימודים
##חיפה
הזיתים
מירון
ולנסות
הבכור
לשב
גרשון
מבתי
##eng
עזריה
כלול
##alt
הבשורה
##גוג
הדרומית
הרכבים
##עילי
##עונים
והלא
##kh
האיגוד
נעמה
##ated
מריה
שלכן
##טלס
ברש
##מיי
זהר
הנמל
זילנד
להרשות
לוזון
המולד
איור
הסטטוס
חדשני
##פורת
שחיה
##ובבי
שלמד
מתוו
לתקנות
##ורק
בגישה
ריצופים
ועדות
##מנוע
המבוססת
המוסדות
לניתוח
לתשומת
אירן
##ילמה
המימון
great
כפית
נאשם
הטה
בלגיה
ופעם
לגיטימית
לחוויה
##ouse
בהירות
##גתם
שלשה
##נזורה
נבון
ולשמור
חגים
הסברה
לפניי
נפילת
right
ועש
תהפוך
היכנסו
מהני
ובב
לאלת
##press
##פאורה
##טיבת
תקשיב
המגיעים
وان
שהתחיל
השוויון
מדרגה
השחורה
סוני
##מיל
##200
בסוד
רבת
ההצטרפות
סיא
##בייה
נעזור
קידוח
פערים
למגורים
##אימו
חופרת
לילדה
צייצנים
ההערכה
##מושת
תפרי
ציפורים
תשנ
סופש
להזיז
1979
שאריות
lg
style
נסח
האוו
הנסיבות
מדריכים
התקר
עיל
##נקר
אלטרנטיבה
הצלם
קיסריה
מושחתים
לווא
לקולנוע
##כימו
וכאלה
ללילה
בבה
##שיע
מוטר
עוול
שעשתה
נמכר
החבילה
בסטודיו
הסוציאלי
##רחת
הנוחות
הפלג
דבק
אביבי
ארצית
לקרא
דבי
נשמעת
ההט
יוטיוב
לסמן
וכתוצאה
מאמא
ספורות
##וקרים
נזקי
##לכים
##נותו
עף
מחלקים
קרע
תסמונת
##צאית
האמנתי
הפוכה
טייל
הכותב
ייחודיות
המכשירים
ובטוח
הקשות
##ייבויות
השיבה
להיסטוריה
אימו
סטוד
נתונה
לתינוק
מאוחרת
##ולשים
מחויב
מונעת
הממצאים
רגלי
##פיכה
ופחחות
צמצום
national
##פתיות
##ושלת
בעליל
בפלאפון
##וכם
המתאר
נרשמה
יהודיה
מובנה
השבועי
בתוצאות
אינטי
שאש
במכשיר
הררי
feel
הסלול
שטרא
העתק
106
הפסיד
מיהו
והחברה
הזזה
חרדית
משוחר
ההם
העלמין
מבטיחים
והלי
##uss
משקף
במשחקי
שהחז
לחיבור
עולמות
##ology
שעדיף
מחצי
בצפר
וללמוד
1983
הולדתו
נוצרה
משמח
דיווחו
לימור
בפלי
מטופל
שנחשב
ושמ
קראה
הריק
אזעקה
זמרת
##נטור
אשפה
שמחתי
fir
work
מצעים
class
העורף
לטעום
top
גזען
ויג
המרק
1969
##zy
##וריאל
שמנ
יכולתו
לבבות
אלישע
המיועדים
האמירה
ויוצא
וזכה
שנבחר
קיצונית
טפט
לגרש
התקיימו
פריצה
התאחדות
עוצרים
הנערים
ההפרדה
מתת
##еры
ב19
הפעמים
פינטו
משפיעה
שחת
##מידע
באפשרותך
1941
שבעצם
יני
הסתיי
להתארגן
תלב
מבאר
המנע
בביטחון
מתאימות
שורת
מטרתו
בנבחרת
##שיכה
והעולם
שהוציא
טוביה
מילת
##💋💋
טכניקות
חומות
ילמדו
##וצב
ממקור
וועדת
נשמות
אסורה
##געות
##ריחים
החמישית
ובמע
היומיו
מתקפת
##כנתי
עמך
תאכל
##עוס
##טינית
למוקד
##כיין
מוזמנת
מזהיר
שהרב
הספרדית
להסיק
ניגוד
שלפעמים
לחגי
וחיל
פרנסה
לשגר
קופץ
necklace
##פנית
אלול
חוגגת
הבדיקות
הלכנו
כפת
בחס
פעילותה
מעסיק
להסדר
המוכרת
משאר
הואיל
נבל
##כירי
##זיט
הכלא
##קורן
וגדל
החסימה
ושימוש
a9
החשק
אנטישמי
ציונות
facebook
תיי
בשמונה
וחג
##סע
מרכזיות
להקה
##גרלה
חזרנו
##ux
בשבי
דוברי
##רכבת
מפעלי
קורן
איבדה
##ציאים
לפוליטיקה
חוקרי
יקרא
להכנת
mitz
קנאית
שושנה
ככלי
בסיני
למיליון
מעמיקה
עיין
צדדי
ונמצא
סיורים
תחתון
כאדם
לחרדים
##זהיר
מסייעת
לסרב
авт
הפסיקו
למכון
חרד
הדגים
ממרכז
##سخ
##דרג
דונ
מחב
מההתחלה
ציני
##ארס
בשלד
במטוס
לחשב
לסלוח
הגלוב
##גיעו
נצטרך
פריד
עשיתם
##טורה
בדרישה
##חתרת
בובות
בוכים
##וליטיקאים
##צהרה
לבשר
##сс
אמריקני
##שומים
tikva
pers
הבסיסי
שככה
##uuuuuuuuuuuuuuuuuuuuuuuuuuuuuuuu
##נגן
מדהימות
##מסור
תעזור
חירות
קוא
מחווה
ישתנה
לבחירתכם
בעלים
מפול
מבוט
האדומים
ונשאר
##31
וחברי
##ev
##זהה
מסט
שמדבר
בגלצ
האיזון
להל
המקורות
עותקים
מחברים
1975
1942
מדידה
שנותנים
ההרשמה
##גייס
מרצון
##זקה
שגיאות
המקצועיים
היער
וראו
להרצ
##אמי
גיבורים
ונשא
נופי
המירוץ
בידיו
כוללות
##מלכה
זב
year
מאוז
כרך
##בינות
מצייצים
לבנו
ולז
והיינו
בתגובות
מסיימת
מגש
בלוחות
##מטיים
דנון
ויכולת
תיתן
תוצר
וכלל
לצרכן
##ize
##נדרה
בוזגלו
לאלימות
חילונים
הוארך
בקפידה
בשלל
בולטים
bonjour
מעצמו
קובעים
##נאפצאט
קמים
##anc
הרצוי
##ססיה
intern
##elf
להצטלם
down
יוסיף
טרמפ
חריגה
בלפור
כליל
לשדרג
nb
במגדל
ניצחו
ופול
מרכי
שוכן
בנויה
מזיקים
בזוגיות
חולצת
צבאות
נתקע
לנתק
כרכור
##ושל
שטיח
למימוש
מעצם
יכלה
אחזור
פוסק
שאצ
ממשלות
נפץ
1947
גומ
1965
הסר
ההיפך
fire
איבר
הנדרשת
נכבד
הישגים
שהתא
הסגן
מוותרים
מקובלת
##דנים
אוחז
##ми
אלבר
##טורית
סוגיות
הציל
העלות
מצבם
לעומ
לאוטובוס
הישראליות
##געון
1944
בעמדת
לרשויות
mac
דעתה
ההופעות
קוסמטיקה
האליפות
מסוף
במוקד
הזוהר
להקדיש
אתגרים
ההכנה
##צלן
##32
##ומטית
##חררו
לתקופת
תצטרכו
תמיכת
##ייקונים
שבחיים
الخ
##ويت
לדעתו
הפינה
ואמ
הרף
תיקו
עשייה
האולטי
גיבורי
הסובלים
נורמלית
ולאח
סיון
חורבן
אוסקר
אינץ
רצוף
מדגיש
בשינוי
היורה
חשוף
ובמש
##ute
בתכלס
גלצ
משיק
התקפה
אצטרך
נין
אורנה
##טלפון
המפורסמת
שתדע
חופי
דיגיטלית
בנפש
לטראמפ
מחסום
יצירתי
בוטה
##קפות
החשובות
הקופה
ביתית
שיקולים
##ages
לאלתר
משער
היוזמה
נקבה
##ישגים
החמים
המושבה
משבוע
הסייבר
מהמא
##ful
##בינים
המציא
ויקטור
שעליהם
לשטוף
הסוג
במדיניות
בילד
##לתית
מהעבר
מדענים
ירמיה
דרכון
##עמם
מגדולי
##פרון
פרוץ
ומחז
תאורת
התקנות
במכללה
בוצעה
##ייסד
פסיכולוגית
##ניינת
טירוף
יתקיימו
קטיף
ns
##מבו
##רכבה
##מכה
##го
נסיכה
##פחים
מינויו
לשמוח
רקטות
שכמו
אטיאס
fact
לחדרי
הנופש
כבדה
משלוחים
תרגול
מולטי
ממלכתי
##סתו
jewelry
זן
##פיצה
במכונית
האמין
המורכב
u003e
בהמה
אלפא
מעריכה
מפגרים
הבימה
משקפי
בברית
##37
להתנתק
מבור
מרווח
החזיר
גמליאל
מבצעי
מלווים
נגדם
הסוהר
לדעתך
360
##בלב
מתארת
##וערות
##מויים
פיני
הביצים
##וכח
פיליפ
##ua
ושוק
האוסטר
קרינה
הדיונים
מחור
св
ומגוון
לפינוי
ידעתם
בחייהם
😍😍😍
הובילו
סלבס
תקפה
שרצה
##ספר
##יסות
החב
כימי
##טלים
נעלמה
1976
##ote
וניל
בבתים
הירקון
במיט
פורש
לתחרות
לשלי
תוכלי
הגבלת
אביר
באוסטרליה
שכולל
שהפכו
לבחורה
usb
ms
אינספור
##iyon
אולמות
מתחרים
מהרו
לשינויים
##ural
בידיעה
לערער
ניתוחים
##يه
##ריצים
בפינת
שהבנתי
ונז
בקומ
מכנס
מנוס
לכוכב
מוצג
בטיסה
מאלו
להרכיב
מהאוכל
##טליזם
שנהיה
פטרו
נאלצו
חמורות
אלוני
ממגוון
לכפות
חסידות
המסורתי
העוסקת
מרות
בבלוקים
המצור
האימונים
הפעיל
כוחותינו
גמורה
##оч
mach
וגור
עמיחי
בפרסום
לגנות
הומני
מטעמו
להסתדר
הפיגועים
##צינים
הצגות
##פתם
אוהבות
השיעורים
האסון
העכש
שנמצאת
דכתיב
اب
בלומ
מטא
תשלם
בילי
##חיון
אופוזיציה
המצט
לעצבן
ומקור
פרצו
ממתין
מלאת
יצאת
מתקבל
מעז
האסירים
שרואה
הגורל
צפיות
שחוש
##רייה
נסיך
למדיניות
וויל
יהוש
תסתכל
מאדם
משמרות
זמיר
##גנת
האוכלוסיה
1978
fil
ויקט
שהתע
מבטחים
הפגנת
ועסקים
באום
שבאים
המאפיינים
העונשין
יהונתן
mil
טנקים
לעזרת
הזמרת
לגא
ועשו
משעה
המנצח
נציגים
חילוף
מפרק
##ולדו
בלום
מחזה
##וכניות
##ישן
נרשמו
בברצלונה
הפתי
מכנסיים
יצליחו
המוחלט
איטית
הקליפ
שמעניין
ומערכת
מפרט
מגדלים
בתעשיית
שליד
ההתנתקות
❤❤❤
יריחו
להתמודדות
הקנאביס
מזיק
##גלת
האנט
לנאום
מדינית
הבישול
##כפר
המהות
לחיצה
סולי
להשקעה
##טינים
לקרן
הפטרי
מתנפ
שניתנה
##יוטים
מחמאות
טעיתי
##קימו
המאפשרים
##מוב
1972
##פשת
##kelon
##ירום
לגופו
##בטלה
וריכוז
חינוכית
##غرد
אולפן
##צני
הדוח
115
הממוקם
במעשה
העשיר
תהלים
ashkelon
##וכרת
##פלציה
ובמקרה
טח
שמתחיל
jo
מתמחים
יהלומים
יכנס
סס
ביחסי
יונ
תירס
לרשימה
חושך
והמון
לגלי
ציונית
ואד
הרמת
זמינים
##צפ
אימוץ
הנאצי
רכשה
יידע
הדוקטור
הראייה
ברבים
וממילא
u05d5
במחירי
הוכרז
לבעיה
ממועד
bab
יצרנית
נכתבו
תשואה
##ויבות
שגרירות
עלק
לשנים
חדשנות
הסימנים
מענין
##dr
סגנונות
##גדלים
##га
גרביים
הרעיונות
נגיש
לתנאי
צנוע
רצית
לספורט
והריסה
דרבי
שהוקם
##ליקה
העשור
לצעירים
חינוכי
hadera
ואשתו
פעלה
הספירה
val
שהממשלה
##יקלופ
בתורת
למור
זמינה
שהתי
ושירותים
תצל
נפלאים
##ins
החיה
פורסמו
יפר
בפומבי
מנועי
במוזיקה
להריון
الت
לדמות
##ייז
ברורות
להיזהר
צבעוניים
סמרט
המבצעים
שמביא
##iness
תספר
מעיל
נתפסו
התשעים
אטום
photo
הנחל
##ister
ערביי
ריפוי
הביתי
הפילוס
תדאגי
איה
הסקרים
להיק
לדבריה
ממות
גלוי
לניו
קצרות
1949
הזוגיות
##רחו
מלצר
שפוי
חיידקים
ומתע
לאמת
pard
גבינת
והילדים
לבדיקה
##ool
לשחזר
מצוקה
כישרון
הזרם
אמשיך
פופולרי
להצדיק
מקול
נקל
השוו
bel
##ושט
להתחרות
ידבר
##וויטים
אספקה
ויקיפדיה
ומנ
ראשונות
נבחרים
בשיער
וודאי
עגול
##ידריות
בשאלות
הבסיסית
מפתחות
הארדקור
קודמת
##כסוכים
##tern
הפרישה
##כחיש
ליג
##פעים
האירו
הוותיק
היג
הכנסו
ההמלצה
##ivers
משלהם
mem
##זרקו
גרון
קשורות
מסירת
הקובץ
fran
סוכרת
הסקס
##פורמים
חילול
ממושכת
סגולה
צייצתי
המשלחת
לנפש
power
טורקי
ולהס
שמנו
מצדי
les
לתר
قطر
בפשטות
ההגירה
שמשון
מיון
לנש
ah
שותק
עכבר
הצרכנים
לרטווט
##ריי
##רחות
שראו
super
מוטלת
השקרים
תלות
מכהן
start
תסביר
המעורבים
##ומלץ
##dal
שרברבות
להול
حساب
סבון
ההכנסה
بها
במפלגת
מבצעת
##טיני
מעצבת
שקש
מוניטין
פיא
מייצרת
תפקוד
לשיא
##ופם
מאול
##ode
ראשונית
להודו
posted
##פוצ
ביור
טלויזיה
##ков
ומסלעות
ver
cal
לאומיים
כתום
##בולנס
ירגיש
##1000
הובא
קליפורניה
הפרוייקט
חמושים
אוחיון
התבל
מבוקש
##שתתפו
##אגו
בחוזה
they
מנורות
סרו
בסיסיים
הנערה
קלאב
שיושב
са
ערפאת
##פגעי
בירי
מינהל
סיפוק
ליתן
לדמוקרטיה
1974
זוועה
הרגילה
למחבלים
##כבו
הרצו
במועצת
לתוקף
מדברות
##orno
##קדו
##ואליות
מעלית
רלוונטיים
ההשכלה
מייצגים
מדרש
אחה
קינן
שובל
עבה
פגם
week
app
וחברה
איטלקי
תיאום
מבס
אושרה
cn
המטומט
לין
באייפון
נגמרה
לזל
רבינוביץ
##ולינג
צוחקים
התקן
המטוסים
שרידי
שהו
אנת
להשמיע
רכה
שגדל
איפשר
סיקור
##וצית
##נזה
##שיץ
ממשלתית
הזרוע
מלחיץ
המוסלמי
##רוז
ונכון
ולנ
##פוד
chr
שלמדתי
רענן
מנווה
בתפריט
הציעו
שהנו
שהילד
יצרן
אדריכלות
תוציא
דרב
טסה
##לקסי
הריכוז
החמישים
תעשייתי
##ראפט
הרומית
##מצות
הרושם
para
נולדתי
##עא
תחתית
תגרום
סניפים
מתרגשת
סיגל
##ление
##פליקס
ולהח
##טער
בסניף
ממג
סרק
##לבט
לחצות
מגבעת
##וסקות
ואומרת
לצרפת
השאירו
##ение
מסתיי
הטורקי
השמר
108
לסיבוב
jpg
פקס
##מודדת
שרף
הקשת
במרבית
##אוש
##חישה
ההומ
שלקח
תיקח
להירגע
צבר
##אלצו
מחויי
תעמוד
##ele
##arry
בקירות
##מסטרדם
##סינו
וחוזר
גדלתי
הסוללה
הצביע
תהייה
נעה
##ari
na
##עלמות
ובוודאי
העבירו
בפיר
במגע
##ных
כדרך
##ראס
##פתיה
petah
##ופתו
הסכמים
המציע
מאכלים
בתוכן
מקומה
הדעה
העתירה
השקת
אחידה
נופלת
בוצעו
הפיצוי
האקלים
שהוקמה
הרלוונטיים
##נוקת
הדיגיטלי
שגוי
סטארט
נדירים
חתום
שמקבלים
תאור
השתנו
הרגלים
dimona
להכר
לאזרחים
וכה
מאפשרות
##נטרנט
שמחפש
נאמנה
ועבר
מהלכים
יפעת
מוכי
תשוקה
התכונות
הריאלי
במכרז
##מטים
המתע
מהבי
המלאכה
סלולר
הדיר
בדיוני
היסטוריים
החקיקה
wazers
הצטרפות
המקרר
חלאס
להתפשר
כחבר
בהולנד
מהמקרים
תיח
התרגיל
##oup
ערכת
השערים
החתן
אבין
פיטורים
תזכרו
שעוברים
פורטוגל
נערכים
לנבחרת
ההרצאה
##פרין
מתוכנן
מפרו
לפט
שותפה
החומה
ב10
ההשוואה
החזית
בבד
##נאת
לשיתוף
##ذا
הצום
לסיוע
פרקליטות
##נדרואיד
נסים
שותים
לדרישות
אביטל
לרשותכם
##וחן
עתירה
שמוש
##וינות
מרוחק
למזרח
אופס
רומניה
מכילים
פקודה
109
שהוגשה
נשית
הפרידה
בצחוק
העובדת
דוברת
##גרד
יינות
האלוהים
ואביזרים
נבנו
שוחות
הראשונית
למקצוע
חקלאית
рам
ולאפשר
בהרחבה
למינוי
שיעזרו
שהמשטרה
הבטחות
לרה
טעימות
##fl
לסופר
נסעתי
נחלת
ליהדות
לפצות
הבוגרים
center
ועושים
##והות
להקטין
##סקופ
המלצת
זלמן
ol
מליטה
הפרופיל
שהפכה
בדיאם
במקלחת
הווע
נקייה
בכרטיס
הנכונות
בחיינו
ובזמן
בתפקידו
מפלדה
רוסים
שווארמה
בהווה
ספקים
פלוני
שימשה
פליליים
התלה
העמו
##בקו
##לאו
##ערובות
ולהק
לכבות
ext
ילכו
שהכרתי
##מצאה
לדוד
act
מקוריים
סגורים
mako
##קעו
בקצרה
כרמי
##سخها
##סיות
מעמדה
##box
##ты
הצפוי
sun
האורג
ליידי
##כניסה
דהן
##חרון
גידי
שיקר
מאפ
##סיסה
זוגה
וברח
להתרגל
אלחו
למעצר
אגרות
##חוות
תבואי
תבדוק
המכוניות
בוטל
מוניות
סטנד
אוניברס
תפוחים
בפרצוף
##💔💔
הגופים
##מושים
תותים
רודף
לקניון
##uda
דקור
##ציצים
הפשוטה
האשכנזים
##פגני
ייגמר
ברקאי
מעצבנת
המהירות
השריפה
העיקריות
תושבת
##ותרים
ההתע
האסלאם
לארג
השקיעה
מדויי
נכנ
ובזה
תקי
האלים
כובש
למלחמת
בהגנה
השומן
שקדים
במשבר
עיקריים
reg
בהשפ
##ליאמס
##מונ
רכילות
משלימה
שעלול
החזיק
המשלוח
לליגה
זמנ
##טוסים
להגביל
במוסקבה
למדעי
הגנים
חמצן
אלקטרוניקה
קונספט
не
##וגרפי
המבוגרים
אקטיבי
פוצ
לירון
pardes
בצילום
בגללך
thank
קואליציה
vo
והשפ
השומרון
מספיקה
חוקרת
מציאת
הצוואר
אוזון
לסבית
באותן
בסת
אוסטריה
מניית
נסבל
הפונק
שההת
המחנ
בדוא
מתחרה
להתגייס
האפיפיור
לקיץ
##go
##תות
איק
איילה
הפירות
##שרדות
איבדו
בנהריה
משופ
תאמר
ביעילות
קשישים
ברגשות
##וווווו
про
##ציף
מכחיש
מואיז
זהים
להתחשב
פיגועי
##emek
חגיגי
הציפיות
תאילנד
אובס
הייחודית
פיתרון
הרשע
תעמולה
kark
##חריות
בחיוך
הפניקס
yout
שהציבור
היוונית
גייס
עושר
צלחת
בהזדמנות
אוכלוסייה
##לטל
##ביני
מגמת
חשים
משחרר
חוברת
צניעות
תתנו
שנבנה
השתיקה
אלימה
ההתאחדות
עוג
##אונ
לתחת
להתיר
sold
ולומר
gir
##יננו
israelc
פסנתר
במיקום
lets
דיקט
להתלבש
צוקר
בשבילה
##מיא
למורה
##כניסו
##נשאות
old
בננה
צוואה
מחוק
מפואר
חתיכים
##נסטרוקציה
סיפרתי
afula
מפעילה
##ראללה
מלים
סויה
לפנק
ep
mas
##קושי
##😂😂😂😂😂😂
החינוכית
שתיהן
ريت
##שאות
לתמיד
שנותרו
ולקחת
לתאי
שעשוי
אקספרס
מולו
hay
הצלחות
נגדה
שנתנו
שטרית
כשעה
אילון
דמוי
האינסטגרם
המונו
##צאות
##جم
נהנו
לכה
הסחר
وغرد
נעלמת
נהנתי
שמג
שפיגל
מתקשים
##אולוגיה
עבדים
ברומא
##שמית
נויר
קסון
הכניס
בולטת
והמה
מוצגים
בשיטות
חביבה
פטירתו
מזרחים
ובריאות
מוחי
מעוז
הכובע
לכיס
הדגם
קוז
המוקדמות
##orth
##מונאים
הנחש
היורו
שכטר
וירוס
עולמו
נורו
במסגרתו
##פורסם
מתחילות
תיכוני
לנסח
הנתבעות
טונה
גבינות
מקורה
ريتويت
בסלע
המרכזיות
קדי
סימפט
מרגיע
המגזין
השחקנית
##ומינ
לחדשות
אצליח
מהמציאות
אמיתיות
הפרעת
ההתמודדות
בראשה
שברא
##ילוק
מאקו
במתח
החרדיות
מתעק
הספרייה
בקונגרס
והחש
במשרה
נפתחת
לסיור
משאיות
אמבט
מודול
תופסים
ללוות
חופשיים
התפקידים
הקהילות
ודווקא
אדירים
אונים
##אקי
##by
ובנייה
גלוטן
הצרפתים
המהדורה
##נקות
מהארון
שראינו
מצטרפת
trail
נפצעה
##its
בואנה
משפיעים
מסד
##ויבים
בחלום
##לולים
למדוד
מחמ
יצחקי
חופר
quo
מסבירים
נהניתי
מוסקבה
ולפת
ובקרה
karm
השתתפה
מוגבלויות
המדויק
בגור
להביט
דיאלוג
וכולל
##ze
##נלים
לתלות
##חלטתי
אורה
##ואידים
והיח
מושל
##84
לגשר
יתח
כשבועיים
התיר
וההר
##לחץ
😂😂😂😂😂😂😂😂😂
מורידים
תשא
דתיות
האמינו
ועליו
ההיגיון
וחיים
קפץ
ובצדק
ויהיו
ריו
המשו
ומרגש
ינסה
הסעיף
המדד
hand
rad
##גדר
פרקטים
עוזבים
מתפלל
حسابك
haemek
זרימת
להתחמק
חיוביות
לובש
המיזם
##כניקות
ורבי
אקשן
הפעילים
עבורה
יופיע
דייר
wik
פייס
חאל
##נני
מאוכל
אההה
וקבע
רגועה
לשאלת
סומכת
השגת
הרבנית
בלייזר
##סטרול
אלתר
קליק
במחלה
לדקור
ספרדי
נחשפים
##ists
##יסטיקה
inde
ולמצוא
מסים
מוכנות
לאימון
הספציפי
נוצרו
לברון
hat
##בורו
but
הדא
כשרה
לתפקד
##פיש
##يون
לאותם
iphone
המעוד
וואטסאפ
החלקה
##חוט
נתנאל
נקמה
שטוחה
לשנייה
דאי
לבסיס
שעשינו
ההסדרה
הרכוש
וקש
##חקור
בשמות
##reat
במדעי
שנוע
שידורי
הכיכר
באמצעי
מנהרות
display
לכדורגל
ומשה
הנתון
להדפיס
קומוני
קומיקס
1943
פרלמנט
זומ
באולימפי
הטילים
בתחבורה
##ולינה
להתרכז
כשיר
האלטרנטי
המערכה
צפיתי
תכירו
ומדובר
הפופולרי
pc
##הג
חונ
##ahm
##ומדות
המתרחש
##קדמה
רגעי
סיימו
מקיימים
ציפורניים
שקיימת
מזכירות
המתווה
אסטרו
מלאכותית
##וניברסיטאות
לשיטת
הקורבן
ארתור
##aviv
##שעים
האחות
מכלול
##סורד
עליתי
ותצ
עדותו
friends
זמנו
##כורות
יתא
##ga
בתשע
המסתננים
בביטוח
נעדר
פליז
שביתת
השוט
הרבני
הופה
פתוחות
ונסון
פסיכולוגי
הפרשנות
4000
וירקות
אמק
אשמים
אכיפה
גרוסמן
התאמת
האנגלי
ושהוא
##ding
שפרסם
##ורין
מאתר
##לונית
newsstand
##דיי
מעני
מקדי
חווים
קופה
##וללים
##ude
akov
##לטפורמה
לנמל
##דורי
שזור
שתז
שטראמפ
מתוכן
לאחל
уп
סולו
מסנן
למסעדה
وانسخها
##תית
ושע
נפלאות
התפוצ
again
משולש
בקלפי
ההכרזה
כושל
אינטל
##תונת
יוגב
סנדר
##בירי
נוזל
שמצאתי
הקונספט
מושבים
החסידות
##ביבות
בקטגוריית
בפנינו
רקב
זבול
מערע
nahar
המעט
לרדוף
data
שרירי
הצילו
טרנד
מסלולים
107
##ler
יהוד
תפוס
בשומרון
הימנית
הולי
שדרוג
##ama
ושמח
במדרגות
ההשלכות
תכל
המבוקש
הכנרת
אמזון
מבוצ
הסכימה
##ניקוז
##ררררר
##よう
הבוט
טבעות
##כטר
לקיבוץ
שלפחות
הנציב
גזית
יזמים
למילים
family
מולד
הפערים
הפנימיים
הנדסת
##תן
##וריו
וקבלו
##קיץ
סרטוני
##בריהם
אביחי
כינוי
##שרתים
הסיפ
להינ
זיי
עוני
##מודה
סאן
מתעסק
ברגליים
המשכן
המסרים
שטוח
הכשר
עלמין
המנהיגים
##want
מזוהה
שמטרתו
##נבוים
כלכליות
לחדור
שחייבים
הצהרה
שהרו
כנפיים
לנח
אנונימי
##פיהם
להו
שהוס
המתחרים
ותיע
שיקוע
esp
בטה
club
הרחם
ומעל
זוגו
##ילוסופיה
וואט
רמזים
##נקן
##שאה
מצאת
בפח
מעשן
משתלמת
ומשרד
נפגעי
רעפים
נגב
##89
והתרבות
הסניף
עשיית
הכין
מעצבנים
השותפים
בכמויות
המסחרי
cc
הורדה
הדקירה
##וללה
קוריס
ואסור
חביבי
prot
בטורניר
song
מתפללים
המשלב
משיכה
נתיבות
הנסיכה
תביני
##ав
##ויטר
הפתוחה
יול
באוזן
מעוצבות
הגרוע
עתיקה
תתבייש
להתנהל
גולדן
המבחנים
##וסיין
הקלפים
##טונים
מערבי
וישר
האישור
ימיו
karkur
##ada
המסגרת
יישובים
מאיימת
בסתר
לתובעת
שכמות
עינת
הצהיר
שכנים
קע
שמריהו
משתד
ששמע
למרח
המהירה
הירוקים
ונוחה
##ידושים
ולמד
בשדות
בסבלנות
##תייע
ינ
ramon
##str
גמיש
##וביות
תיאר
בנתי
טוו
לעני
השמיני
אומות
מפלי
זגורי
מאוש
אינטנסי
לעלייה
הבחינה
##מייה
צפי
international
son
גיליון
equ
בעצרת
thanks
ובעלת
##עללות
נטילת
hag
למסיבת
ומרת
מעריץ
הקליטה
בדיני
lab
הפרסומת
מצטרפים
1950
פיקס
צאו
עמדתי
##נדלים
ומים
סינטטי
מהתחלה
להקות
טובי
עבודתה
הקלאסית
migdal
לטפס
מציינת
##זג
##רגנים
הכינו
לגבול
ותחז
ביצעה
הורסת
אהובתי
מחליטה
ולוק
בפניכם
ערוצים
##דיח
##פליקט
יחול
הקיצ
עמידות
לעובדי
אזה
סקו
מפא
היישר
מרשם
ליישוב
בפעולה
גבירול
דומינ
ומידע
פליירים
##נטוס
מבעד
לקונ
אירלנד
##ירתם
מתכות
שושן
נחשפו
##קקק
##פטו
הטעויות
שהצליח
המאוחדת
מעידים
##צועי
גופני
לפיק
השיג
לעקוף
רכיב
האוזן
font
ציינה
ובתוך
התאה
בשירותי
מינימלי
ליהודי
לסכם
העליה
רומי
הפרות
תנור
פצצות
הפחתת
התגלו
תביאו
בחוג
שיזוף
משאל
хаиф
ובשי
ההתקפה
חנניה
רגישים
הספרדים
העיקרון
וזי
עיקרון
title
##וכד
אהבות
שהשמאל
צייץ
קוטר
אחינו
למחיר
בורח
ורוצים
רציניים
סבב
החליף
##אימים
women
##ובבים
##בתות
ליטול
לשוחח
קדושים
במחשבות
הפקולטה
##גורית
בטכנולוגיה
ברנע
נגלה
##news
שאס
בודה
##ועית
intel
##ling
ושמו
פתא
פארם
ענבר
ליוע
אוור
זיון
ספירת
למרחב
##кс
לימדו
אישים
לחטוף
please
##סיט
לנתח
om
ביתה
המיעוט
חוזים
תרגילים
שמצא
מכדי
לתקרה
נטלי
סכנת
הסבל
לשעות
קליטה
הקימה
מפעילות
צולם
חתימת
להכרה
ספרה
משתל
שייכות
נבדק
סופסוף
מערבבים
מצדיק
רייטינג
עלולות
##יבי
בעז
שכדי
חריגים
אדני
שביעות
ווסט
גבות
לתג
cra
ספו
בשולי
באלה
##ution
מהתקופה
לאבן
ומסגרות
##מוטט
##61
##ביצוע
##סלמים
פלאש
השליח
דחיית
טועים
מהמאה
mov
##iorno
טיפות
##ואג
המינית
באמנות
באד
פיננסי
חיסון
שיחקה
מהותית
החזקים
גינת
הנוכחות
מכוסה
למעבר
##טם
שיוצאים
buenos
מובילות
המופיעים
הייעוץ
לעיין
שמחז
u05d9
הקלות
high
מטעמים
##זרית
להעסיק
ערבות
תקשרות
מיטל
##פעילה
לאומ
מסופר
הבדיחה
##חיפות
יעק
מגיבה
אלקטרונית
פורסמה
תוצ
צייצן
שהתרח
הוריד
שנקבעו
קוגני
בכללי
המשוב
סינון
התפרסם
ומשק
בנוח
מעשר
שעברתי
ניתוק
الل
ולגלות
ספרדית
למשמר
לירידה
החוזים
מפורסמים
קפד
הדפוס
תשב
שוקו
שברשות
שטיינמן
הפריטים
תפסו
אנאלי
המתלוננת
הגם
ולהשת
##טרומ
##za
הישנים
המשכנתא
שנגמר
##ואליה
##מספר
הדרמה
צעק
דון
האשמה
##סיטר
מציצה
ביקורו
התפריט
שמך
מפסיד
מזיז
בוה
הכינוי
מתלוננים
קיט
יספר
גוו
בודקת
##וממות
##ann
בריחה
שיעבור
תול
לעיתון
לירן
שבעל
##иш
היבטים
##אלון
חדשנית
##קאסט
want
##טני
לרחובות
אפקטיבי
##urs
וארו
יציקה
בחלקה
עסקו
החילוני
פלטפורמה
בשפע
אלהי
בתפק
##וכרים
##enn
##ited
מושק
דקר
מתנת
אמרי
##צינות
שחיפ
ספציפיים
yav
хаифа
סודי
ילמד
משורר
סערת
העצם
לברכה
##אין
##ביבת
טרומיות
נעימים
לרוח
מתבס
חשפה
##ern
נמלט
450
בשחור
פתק
enter
blue
טרקטור
##ונכם
ארכיא
שמעוניין
תבל
מאבדים
תלמדו
לשיחות
במונחים
שתעשה
בחמישי
שבמקרה
##ры
מושגים
ההמונים
באגף
אפשריים
ברצועה
שמאלנית
לרכישה
והרח
חרט
רף
התיקים
פועלי
עיצובים
ле
שופטי
אגיע
##חוזה
1940
מאגרי
show
guten
ישמח
קן
בכוס
מסתובבת
##טחתי
הראיה
חחחחחחחחחחחחחחחחח
##ליפינים
rot
##do
העשייה
אירו
רביעית
##נציונ
התזונה
קוקה
הלוק
גיורא
שנתית
חסינות
החבורה
התנצלות
עותק
מסתובבים
אלבומים
ומעניין
##יצע
пер
##ליפים
מוותרת
מלע
cent
נסה
שהפעם
במדליית
israelwant
##פוצץ
##לחין
הטכניון
##פקטים
##וטובלי
אשרי
arad
דנן
בקופ
וזק
תפילות
נשמתי
ימכ
הדיסק
תרמו
##ble
עליונה
השלבים
במרת
##ניונים
כללה
128
המצאה
הבלעדי
אלופת
##ליהן
באפליקציה
מהצבא
דיסקונט
הגינה
בפורים
##םםםםםםםם
בקפה
נגיעה
food
##ובילה
ותז
##ושן
בעניינו
ויודע
ולמח
מותגים
בחרנו
##ריש
אריזה
הסינגל
שון
בשחיתות
זיין
##כנסים
המלכות
שעונים
053
##פיון
##бот
לצבע
המדינית
הנגבי
סטיבן
hist
##וגעים
הנהיגה
תאוצה
שמאחורי
לשמה
לרבי
הפיקוד
בשניה
האסיר
כרוך
ששום
חשמלית
פוי
טכנולוגיית
##אבדים
בהארץ
גלנט
תשמעו
##ное
##חקרו
וחיי
המבול
##ja
ולך
list
##ava
נהרס
##זיליה
פרנקל
##pos
הדקה
##😘😘
נשוא
העסקיים
חמלה
הוקמו
בגשם
מגישים
לתינוקות
הכיס
למדע
##נוחה
פסיכיאטר
שוע
אמירות
בפחות
##בוט
לכלכלה
חיילת
pat
עימותים
הכלכליים
יזמות
וביניהם
det
##71
התמורה
בורקס
לחזות
מכבר
הבהרה
הבטחה
מקדימה
הסעודית
פשרות
מטעמה
הנביאים
והשוואת
והדי
text
מהרי
ברסלב
##עשה
בחגי
פנטזיה
בהסכמה
לצו
##62
למסיבה
ממישהו
לינו
שקול
השמאלית
הקלאסי
קומי
1971
מחלקות
water
##זוע
עצל
שכרו
סידורי
התשלומים
שהתקיימה
לחנך
בקנדה
פריי
תרגישי
האבנים
פלס
ומוס
##רופוס
משמעת
ועור
יעזרו
##קיפת
דיווחה
יאנג
אישתי
לגרמניה
bas
בשרי
ביתן
##ески
מזי
להתרחש
להיפגע
הקובע
סטייט
ברל
ביציאה
מצל
המפות
אחותה
תמשי
ואצל
פינוק
בנחל
##חול
תדיר
האגף
התחתית
ימנים
מרוש
זכריה
ירידת
פטנט
מדף
רכבו
כאיש
שיעזור
מתערב
תודעה
שקורא
ob
עדשים
רינה
עמרי
youtube
במעגל
אתך
הצטרפה
וחמש
בהדר
מצרפת
לתקשר
הרעה
כימיקלים
ובנ
אלברט
תומאס
רואי
וחברת
אעדכן
בקישור
צפויות
השלג
beaut
כלכל
וכיוצא
לגיוס
דובי
מוגדרת
##כמן
##זיין
האולי
העזרה
חסם
גינות
בבלי
השבעה
בפריפריה
שיצאה
תריסים
רחבת
נושאת
כינוס
לשד
אהובים
בוידאו
##שני
##טטטט
לחמאס
##ומיין
ומוצ
רלב
לגמור
##פרע
בכיתי
למוסדות
##נוז
החרם
ילה
מדים
umm
השביעית
טעה
שהלב
cle
המחיה
game
מניר
בשאלת
והאמת
לחלץ
בגידה
עסוקה
בספרים
שטראוס
שמקבל
למחשבה
ви
##שנה
הקצין
סמלי
##גינות
##טשילד
וגברים
המקובלת
בעיקרון
גרניט
ורעייתו
management
##ои
השתן
מתמדת
יאומן
הגזענות
הונג
כנות
מוצלחים
גיס
מארו
אוהל
שגרה
הסכמת
לשיער
##ep
אדלר
בפניי
התייצ
הפמיני
לקפה
העקרונות
под
ולמנוע
##פיקו
נזילות
המכריע
שקופה
להתבונן
שעוסק
עורר
חנון
yavne
באיש
רוזנטל
ישים
כבודו
##ino
ומרכז
אומרות
האוני
במקרקעין
מסננים
במוצר
המחצית
האידי
מוביט
שרצח
##חסו
תתחילו
##get
import
נשואים
הציגו
exc
##וטלנד
בדבריו
##arch
מדמ
קוטל
הפסדים
לצדדים
בוני
##שלות
פעמית
הוריה
לגידול
האופנוע
פרוש
ומפרי
##да
המפורסמים
##דרדר
נעבור
יואוו
support
##נסק
להחרים
הפולני
מפנקת
הניו
way
##ри
נעשים
הנמוכה
בחלב
online
תערוכות
##zion
חתמה
ll
ונית
בעייתית
וממשיך
סטיי
##מיט
##מינל
שזכתה
##בטאת
ברוטב
סילבר
מעבוד
##שאול
ומהווה
אוכלוסיות
ואחרות
בוטוקס
צמודה
בשלהי
יוה
מברי
תצהיר
מהסי
מאורגן
הזויים
אכיפת
מצויה
המקלט
סרח
אמונת
הוגשו
תפה
יפני
##גרשים
הנוסח
לישיבה
הדיפל
קוצ
הפצת
ההכנות
##ופסא
רוכשים
פאי
לפרשת
wall
נחשון
מאחוריו
##🙏🙏
##وت
הימורים
מיז
סרטו
אגוזים
never
נבחרה
ממעלה
והמד
##חזקת
ושלושה
under
لل
נאלצים
##רגול
שגרתי
וקרי
xml
אוש
והבר
שלומית
מתחייב
##ien
בידיעות
a0
##ision
זורקים
האסלאמית
שהמת
##חחחחחחחחחחחחחחחחחחחחחחחחחחחחחחחח
המטופלים
פלאפל
##משל
מצופה
הטלת
הארכת
פסיכולוגיה
משמעותיות
לממשלת
פוליא
משונה
##ייקון
ירא
במודל
הפאר
הגיונית
העוצמה
##פירציה
המשאבים
##ונתיים
דוי
בקידום
בקואליציה
אחריך
dire
##yc
נשלחו
ולגרום
המרכולים
רעייתו
שהוד
יוחאי
וכסף
וסק
איפשהו
לבתים
פנקס
##קוש
##42
שלייייי
דרשו
u05e8
שהינו
בנתיב
המדור
הגלם
סיכם
והוסיף
ציורי
ובחו
bom
בטכניון
משוגעת
##ут
כוכבת
ve
שנרצח
הערבה
מפתחים
кар
דימוי
הידועים
היהודיים
המנהרות
ולהז
##בולוציה
111
התשתיות
גורי
תקנון
ספין
ירצו
##נצחת
שנדרש
##סקר
##רוניקה
הפיננסי
##וליזם
מתעוררת
##ium
ולדבר
לחוסר
לקוות
תקציבים
אזכור
שוכב
אתלט
חלשים
שיביא
##ובנות
ורכ
לצרוך
##יבש
נעם
חשה
התחדשות
tom
בחריפות
פוקי
קארי
חורים
##יידקים
יאמן
morgen
ונוס
karmiel
החנויות
היוקרתי
תקשיבי
עתיקים
ממתינים
לספירה
מהשמאל
קפוא
במוצאי
צילם
סימול
נוזלים
תדעי
##ציגי
שנרצ
פרדי
משכורות
##ודן
השמירה
1960
ההתקשרות
הניקוי
פרנסיסקו
aw
ממשית
בפרטים
עקרונית
תוקפים
פרע
שרצית
החובות
אתחיל
תופסת
פונו
##יתוב
אחוזת
israelcenter
חוקיות
שתא
שלוקח
תברואה
עא
החוקה
שחשב
##ובשים
מאתגר
התצוגה
לתגובה
אירוני
מיומנות
בקבר
הקרבות
##fm
וטען
מקש
נתת
לשרי
##יבוצים
רובה
תדבר
העצב
שוליים
הסרטונים
התפי
הממסד
החורש
עקבות
ששלח
##iday
בייס
תיווך
סוגיית
שניסו
התרומה
הגלילית
mitzpe
ir
##ולתו
אכלו
מתבטא
זנד
##בעם
גסה
סולם
כלכלת
יפנית
לתס
האווירית
##מקת
##לוט
מביט
ריג
sou
סייע
מעסיקים
ביריעות
פיות
המתקפה
במרפסת
nazar
בתיאום
ופעילות
ty
הבנתם
##גדיה
##פקטיבה
מוריס
מופלא
הכביסה
דותן
אלקין
השותפות
בקרן
מדיי
דז
##ger
לצילום
למורים
השורות
והחי
אקסל
גלות
בעריכת
ופרופ
תזכור
נוצרת
##פף
המידות
1956
רשמיים
אשתקד
##אריות
וואוו
רשאים
סינגל
חוששת
פנימיות
הגילאים
מתוצרת
בלאק
מחמאה
זרק
שלכ
גולדשטיין
##2016
הכרזת
מאיימים
ארנון
ביתם
הניקיון
רת
בפעולות
הסחורה
והיתה
סוחר
הנזקים
##נזר
גילתה
היסודי
##גנות
כתובה
גביית
##גוריתם
##רטור
##וססת
חוגים
מאכז
המעצב
טכנולוגיים
##מלו
תירוצים
לשיקום
1964
ממזמן
בבנין
הוטל
וידיאו
סמדר
בווטסאפ
herzliya
לספוג
טיפשים
בוריס
האפשרי
מארצות
לבדה
לעמודים
הזכרון
דחף
המיקרו
##כמי
לפנסיה
##וזורוב
מתחל
המתנות
לאתרים
השביל
לבא
היצרן
הכנות
פסקה
מדמיין
לחשוש
נספח
קופר
האיים
ישתת
השרות
לעיתונות
נגדי
לשימור
יוביל
נצר
שן
##נדיאל
לתלמיד
משאירים
לאלבום
רצפה
בדעת
מעבדות
להתגורר
ואהבת
שאתן
זירה
##ongiorno
היווני
תפקידי
טבעון
שמוע
מניע
להורדת
##לוניה
ציניות
משקרת
הרגו
תלכי
הענף
הוצג
ברלנד
nazareth
נבנתה
בקש
עצומות
ודבר
buongiorno
##ונטו
בתס
ממחר
במתכונת
רצפת
המזבח
מפלסטיק
gab
חכו
לאייפון
שהמא
אקנה
צועקת
ינצח
##טתי
##וקוס
מאלף
כסאות
pass
ואנ
הקלדה
תקוות
הסתדרות
ההובלה
קורל
119
לבגרות
כשהן
הטיסות
##cri
אקוסטית
services
ב3
בתוכם
שוחח
5000
האנטישמיות
sport
long
look
220
מחסן
שהגעתי
מצרי
##טובים
מושלמים
עכברים
למוצר
מפלצת
ברוד
התקבלו
##צנת
##br
לפסול
לחוץ
בלבול
ref
##סתי
##еты
מאוחדת
התאורה
##רטון
פורומים
gra
פוז
ניפגש
אלירן
רגליו
ent
מהכלא
סנקציות
מוכיחה
מרקל
משיקה
##בפני
הויר
##גתו
מרוויח
##יתא
##פרתי
מהחלון
סיסי
קומפ
ком
הזיק
בינוי
ברובע
כשהמ
ולקרוא
הנהגים
fahm
להשכלה
מיותרות
הציעה
הנמצאת
אידיאלי
בפניה
משלוש
חייבות
##בטחות
##דורגל
##ас
rev
אלחוטי
בארסה
תביאי
חללי
וביטחון
לשווק
שמבין
מעליב
ומצא
מסקר
ולבדוק
הציון
בכותרת
החסד
##ריסה
אוטי
שנקראת
מגילת
בביקורת
מתעלם
הסכין
gal
הפצועים
נתקלים
##43
למילה
מציל
למגזר
ולוח
קטינים
בורסה
לבסס
ללש
המציאו
##טואציות
סטין
יורים
השיטות
סטטיק
ערסים
אדריכלים
הצביעות
פיזור
dj
המכרז
אגר
עתיקות
##😩😩😩😩
יהפכו
לזי
כמק
נמלים
גלעדי
חוברות
המופלא
באיי
מזדהה
לחצים
##יטינג
לאמור
תלמידיו
התחשבות
מוזיקלי
מסיימים
למשבר
לגבולות
##жен
##יסטנבול
star
לכמות
לידך
##ורייה
תהנה
להפסקת
מהנדסים
##דתה
cor
ישרא
מנותק
בתנועת
בדיכאון
שהמצב
מדפסות
תעזרו
ביקוש
חוסיין
זיקה
ומשפט
##ומע
הרוג
לאיראן
ibm
הקולי
מסוגו
##47
בהעדר
מסעות
##פצה
למימון
##זולוציה
##בודים
במטה
מניפול
נמרץ
מתושבי
##מקול
מונד
##מותת
בתימן
بال
תופת
וזמן
בדוג
ושרה
הפסיכיא
בינלאומיות
בדמוקרטיה
יאכל
מהכנסת
יבחר
החט
העניים
היומיום
שההורים
##פלסטינים
שמחפשים
אסטרטגית
letsiyon
התפתח
1936
התת
יועצים
משולבת
##נהו
##וסטריה
נאי
בנוף
חגיגית
סכומים
גרעינית
פישמן
בכאב
רעבים
dell
טיהור
##גרפי
מילצ
ורה
וצל
חנינה
למרג
בהתנהגות
##יוטה
##מוטות
משגע
מיתר
##בויים
sab
שרד
ויליאם
הוגנת
בשפי
נרת
השכנה
הדירוג
רכבי
מאג
נהדרים
הגבוהות
תנסו
ביא
מרמה
האתיקה
יצירתית
תמשיכי
ישש
מיניים
נתיבי
בוכריס
נפסיק
אסר
זרועות
הצרות
הכתבות
יקירי
שהקים
כחוק
##לוואות
רכבות
כלפיו
אפייה
השנתית
מוקף
במבה
פניתי
##נזוס
שעור
חשבה
מרבי
##גזר
להכל
באדיבות
והלאה
טנ
המוא
למאה
beach
פוגשים
דיסקים
לחורף
ליישום
##דרלה
שיגידו
פוני
##יחו
ההדרכה
##ובקיה
##ויס
ולבצע
הפלמ
##פיעים
עצמאיים
וגיל
בירדן
עזים
רופאי
##לחות
המערערים
##בנציונ
שימ
השכבה
white
##זעים
שהביאה
כשני
תחתונים
##אפי
ובראשם
המאמצים
פרוטוקול
אנגל
להעלאת
בגיר
מהעובדה
מקוון
הבייתה
לגבש
לגילוי
הפגינו
##итель
וההרשמה
תעל
##ואם
התשתית
חשופים
person
##רכזה
##נדית
שנועדה
החלמה
הוידאו
האדריכל
кир
הדקות
בשרון
הגלישה
fa
##ייתה
מתמקד
שכב
מומלצת
בבריאות
לתושבים
##נגב
שחול
לזלזל
##פינה
המגדל
שניידר
הגולש
ויקטוריה
כמנהל
קלע
הגאה
לבלבל
שמתחילים
##נגנון
הניצ
כתבים
ממצב
לאחוז
לעכשיו
לאז
בשבילנו
למשתמשים
למשא
1961
שהזמן
green
מראשי
מרוץ
המתרח
גהה
when
שקרו
תורמת
מקצה
##ומעים
ההומור
תמרי
בשמש
ואוו
הפיצויים
פרוייקטים
יפג
מובטחת
חרות
##aring
ועק
בתאילנד
וייח
לאיתור
בתאגיד
הזולת
תזמורת
היסודות
להתאמץ
אנגלי
##ta
##ןןןןן
buenas
לטענות
לרבים
הטייס
השישים
##פעלו
המאמרים
הגרלה
##41
החירות
והמט
תשהו
החמור
מזוז
ורדים
קרבן
##קסי
שתן
גזעני
הטא
רגילות
באימון
##פינים
lead
##צילי
##וגעת
מתעסקים
פנאי
יצורים
לגביו
פסגות
הסני
שבמסגרת
הקפדה
נישא
עוזבת
שקרנים
tri
count
הגילוי
גזענית
בקרבות
איסל
##גבש
שידוע
שריפת
שהדברים
##זוי
רומז
##פשו
להזדהות
ולבנות
רביד
בתיא
ממר
למישהי
קריוקי
חיפושים
אויבים
##גנונות
שראוי
ונעשה
האזורים
העמקים
שיכ
לכש
##כתבות
זבולון
מתנהגים
adv
ומעט
נשמת
קבוצתי
הורידו
ומערב
חפש
שולטים
במכ
##ishing
##ef
סוכני
בדגש
לקצה
סביבתי
mess
המופיע
במזומן
הכא
מקרא
לסקר
##ех
וביבי
##ליברמן
תזה
נהפך
המקובלים
הכספי
חפירות
מנגן
ויצירת
הפתרונות
שחרר
##קייה
יומיומי
וניס
stand
בשמ
תקועה
סיכויי
##וטת
цион
בוער
##ите
פרמטרים
##קינה
ספסל
##my
להכשיר
##יעין
בדא
קולומביה
יעדי
ולהעביר
##ret
האומנות
שאכפת
ביחידה
מנעול
פספסתי
שאחראי
לבמה
ניקח
##min
ממקורות
ואירועים
##ופפים
ואדם
איכותיות
##כיני
##כתיות
ותחת
המקביל
שכתבו
יזכו
מילולית
למרוח
התרגל
הקדש
וברי
מאחרים
שמרים
##ني
נפגעה
לארי
בברזיל
כפיר
הזוגות
באדמה
##טובה
תאמיני
🇺🇸
לכלבים
ולעולם
שהוח
הבג
לשבח
העמידה
##לאביב
אבשלום
עונג
##ויש
השיל
השלם
יביאו
הסיע
תתח
סחורה
שנכתבו
ליצירה
נשכחת
##💗💗
כתף
השתי
המצויים
business
וויד
מינכן
ام
ירושה
הקבצים
לאולם
היור
##לטף
החלטתו
##ירתי
יסביר
כנסים
היותה
למותו
לשחקנים
פטיש
לתפ
שורק
סתירה
הטכנולוגי
להברי
product
מוכשרים
##מנטי
החושך
נטר
בגרון
שירו
מפורש
הלוחם
הצמחים
למוח
ואוהב
בצער
end
שפורסמו
להסרת
נענה
לאיחוד
במינו
die
בעודו
הגודל
תוד
##תק
והצעות
מקפידים
אקדמיים
שיגור
שכמה
וקים
noches
בפניהם
וקבלת
לעמדת
בחן
התקנים
גדלו
בנקודות
##פגניסטן
با
##ош
מעודכן
קנית
ומקבל
שביום
##פריד
ההשראה
##עתיד
first
לעבד
ספג
המכפלה
קרובי
וואלק
וודקה
נמנה
המיק
מוה
והביא
##סידי
##gr
חבריה
רחוקות
ההתבגרות
אלוהי
בישוב
##מאלית
יענה
לאורחים
##כרויות
##יונרים
##פכת
נגרר
בפתיחת
להסתיים
דיזנגוף
שהתקשורת
לבנייה
ערביות
מברכים
ידיעת
חולות
1500
לניצחון
דיבה
אקח
ענקי
##ody
😂😂😂😂😂😂
בהוראת
הגויים
##קפו
##פכות
##צויות
##כטה
שאצל
מכתבי
מסחרית
אוזניים
איברים
##view
האימה
inform
ריקי
נמשכים
שחורות
נוראית
##ועדים
המשפחתית
שוקן
kid
הספסל
##אאאאאאאא
קובה
יישארו
dem
מורידה
בשולחן
להתרגש
האלהים
##וול
ולילה
חוטובלי
מודא
135
התכוונת
פרסומים
ארסנל
סלח
במסכת
מתאם
פולק
מטורפים
גאר
##иц
הנסיעות
במכללת
מתקשרים
הטרדות
בגילאי
ус
הזכוכית
##אליזם
##rag
הידר
##מישים
הסלון
מיילים
לפיצוי
השבט
סותר
##ציאו
118
מוגברת
וחשבתי
вы
מצריך
##נגה
פרסמו
אותות
city
בניהם
1946
קוף
המצלמות
מצר
##גוני
##כרנו
1966
מתלבט
##😜😜
גרר
ניצחונות
סירבה
מחליפה
מחנ
להתעדכן
ארגז
בירידה
0404
הפרסומות
היפני
##טרדה
בשכונות
##ובנה
גולש
מצוינים
נוסטלגיה
תפקידם
1963
הכיף
שמעבר
safed
נעצרה
הסמל
כשהא
##ьят
מהפכת
שחוק
tim
שינתה
רגישה
פרווה
175
השמועות
דמים
שכתבה
מסק
הרכש
לשגרה
לצבור
גדרה
ההכשרה
מנור
##орт
кирьят
##יפין
ולהסת
שנשארו
בהתפתחות
אדע
נסיונות
בעיריית
המעלה
##ера
הרפתקאות
ברכישת
מסרבת
שמיו
##سط
##יוטי
##טאי
לאנ
ודברים
##ida
ואות
u003c
קז
לאומיות
באמונה
מזור
המוזר
סהר
זרח
full
מאותם
שילה
מוכח
נעימות
##דיניות
שזק
##erman
מהשטח
אחורי
לכיבוש
בלימודי
במנד
מתפוצץ
להכות
1938
הצריכה
צפונית
##צפית
למוסיקה
סוטה
העוקבים
דביל
באומ
לאינסטגרם
##iat
אורתוד
החיצונית
ההא
הרגלי
פרקליט
תתקשר
הוה
הצפייה
##iving
מרום
לפקודת
וינג
שבוצעו
##מיכת
##סרטים
הציר
##דינו
כשהח
קומדיה
הכבישים
בכתיבה
האיי
דנינו
ומאו
המניה
וטובים
שעומדים
לצידו
מקודם
תעבורה
##עדות
הקומוניסטית
ודם
offic
ספס
##חסת
##che
צהובה
לוהט
האכיפה
השכונות
##יוף
לסדרה
בהנחיית
הימי
בבעלי
והבע
##באתי
דוכן
שחרורו
משוגעים
מוטל
לפיר
##ня
הגמל
העולמות
שלפיה
הפצוע
עצור
##סגל
ומאפשרת
שהחלה
סוכה
החקלא
לנקודה
השאיפה
מוצדק
מפעילים
חץ
ועלי
ומצליח
זורמים
בלון
וכדאי
##ממש
הרת
ההליכה
##נדלר
במליאה
נייט
פקטור
##ינום
hum
באנ
המרגש
הדגש
והתקשורת
project
שעלתה
הציבוריים
חלף
שנוצרו
האלופה
ועסק
יחליט
למשתכן
קווא
##ככ
נאחס
וחרפה
וועלט
וירא
אינסטלטור
מקבלי
ומקום
בתלמוד
##קח
תנחומים
##ברגר
גרמנים
ti
תסכול
הסיבוב
תיס
אוהבי
##ולדאי
והיר
בעבירה
##😢😢
##פוצים
לעבודת
מודיעים
hanna
##גרתי
המחול
אלהיך
הרמות
לשפוך
בסמ
הראשיים
קריא
ועניין
השלטונות
נגן
המחקרים
עבדאללה
##ipp
##מטיבית
גלילי
מניין
ממציא
##amin
הגירה
העשירים
בעומק
אביבית
לכיש
##חסוך
הנוסף
אחזקות
שמאוד
ההיי
תענה
##тер
ההוראות
הכיסא
##urity
למפלגת
הדובר
פיתח
##change
وال
באין
השחורים
רוחו
check
indust
טנק
צפיפות
תרכ
השיט
הלוה
מאירופה
ולדימיר
ארלוזורוב
##כסים
##סטות
ותו
פסגת
word
##46
ועולה
הפסל
גובר
העדויות
port
##לותו
תחזרי
יוגורט
כחברה
רישוי
המשרדים
ובזכות
שמאפשרת
##style
אריזות
ספינת
פגיעות
עמוקים
תזכה
מסמל
אדוארד
בחשיבות
צלב
##ары
העתיקות
הנעל
השוער
שמרג
חפשו
בידינו
הרעים
ובעזרת
להפגנה
פחמימות
מענק
##וטיות
דריסה
בשיווק
להימלט
נבחרות
האופציות
עמדתו
ריאליטי
##92
בציר
נקראים
חוכמה
ריבונות
למצע
חדירה
שישים
להתבצע
пет
והוד
תבואו
הסוס
הפשרה
הפיצה
לקנא
בבכי
להתנסות
נשיקות
##אוור
הפיכה
חגיגת
אירע
##rah
בגולן
מתגוררים
בכוו
תקיפת
הגיבורים
המבוטח
##ng
אתנו
הפעילויות
##ודדת
אגוז
ביקרו
קורת
##וויין
tem
המרצה
דרגות
אלימים
במדו
loc
לאום
ממתקים
התנדבות
חיקוי
תקני
מונחים
ובניו
המשאית
מרוויחים
אויש
תפעול
##צלחות
##ומכת
תעק
תמימים
open
##בדי
המוסיק
לתגובות
וביצוע
##ating
בטופס
מתנשא
נברא
צאת
לתשובה
למפקד
וואס
ונתניהו
עוברות
שוטרי
שניס
sign
הפנס
עופות
מתקפה
המקצועיות
אבוקדו
שזכו
הרוחנית
לצבוע
למוסד
##ייייייי
##יאש
וחומר
##בחירות
מושקע
ותג
האידיא
##גולים
##ата
מתלונן
שרונה
##ops
##iyya
התפתחה
ההגעה
##למידים
גברה
רדיק
##oot
שעסק
יקראו
ומשום
האתגרים
ההלוויה
שהבן
האין
##יימתי
img
מקשה
##96
##נקין
ובבית
וערב
מעודדת
רנט
##וכת
מולק
תשלומי
חומת
בהכ
מבחינתו
קדושת
הסמוכה
גזים
ומגלה
הילרי
העורר
כרית
113
למחצה
factor
בסגל
השפלה
קוקסי
##فا
##ecd
לאמן
המורכבת
גרינברג
##זשהו
יבשים
השתנתה
טהורה
ale
##מטק
שגרמה
להספיק
##ובין
press
כנען
מודלים
מסתננים
יכלול
##uv
התחנות
מקדמת
prat
האיומים
סיטואציה
שערות
בודאי
כאר
##ника
הכרעה
##gl
השתלטו
באזרח
קרוס
##צהרות
המשול
המסעדות
בנם
המעולה
חיבה
פטי
חשוך
הפרויקטים
במאגר
##חבת
נוהגת
מסרה
במקל
בתוכניות
תינוקת
tal
שפתח
ולשי
קולקציית
טורניר
##מטיות
לעיניים
##עיל
מצטיין
קירש
##מנא
הנפוץ
מיקומך
mosh
מחולק
בסכנת
לגלוש
למבצע
##וששות
##ססו
##זנה
למחלות
יידו
##מישות
ענתה
ונעימה
שובו
рамат
##עעע
##סאי
בעלויות
מגמות
##כשים
##😳😳
וצה
ברם
אופרה
145
הומוסקס
לקצר
##ובייל
240
במסמך
באצטדיון
תפוז
שהנת
התקפות
צמרת
אלנבי
לסנן
כספיים
חילונית
בלינק
נצפה
כנסיית
בדרישות
לייעוץ
רוא
ומהר
רלוונטיות
ומשהו
לתחילת
dna
433
מוערך
##פדה
##גוס
инжен
הטיפ
מחשבת
רעי
prof
הסטודיו
המדר
##בושה
##פלס
מתעקש
לגודל
ורבע
ילדיה
יממה
לארגונים
##מטריה
טביב
וכבוד
תודות
##97
קרטון
ושיש
לדת
בוור
השבטים
וער
נתראה
סמסטר
הינן
העייפות
אופנועים
לאם
##ции
pdf
שתיתי
קוביות
צחוקים
שמסר
עירון
העכבר
החקלאי
קברות
שוקי
התהליכים
נגי
לחמם
750
reh
העיצ
מדומה
שילמו
مع
##😖😖
אלופה
מפוצץ
##מקא
מעריצים
המרי
אשפוז
בהרצאה
הגירושין
וממשיכים
שמכבי
##דיפה
הממלכתי
העמותות
קליבלנד
אליס
משלימים
כשצריך
שאו
עמוקות
וחושב
1920
##צלים
עניינית
בדרגת
מהוות
שביצעו
ברוסית
ההמתנה
המנהג
שארית
בהצגה
לעק
fbi
כהלכה
מרשימים
##pace
ציבוריות
אכזרי
##urn
בשבועיים
מטעמי
העצומה
ממוחשבת
מחויבים
מולדת
##ода
איזשהו
ברצוני
##נושות
תחפושת
##ילרים
שימשו
##com
דד
שתאפשר
##sl
לקלל
בהתנדבות
בכתבי
להיאבק
למטרת
מוכרות
הולמת
##שהייה
לכעוס
נגזר
אמסטר
אולגה
הגלות
לאזן
נרחבים
##דנה
ושאי
הערביות
php
בהט
להדביק
שתרצו
תשוב
ולאור
ומהיר
מניאק
המקבילה
##נאו
והחר
לגדר
##צהר
הברכות
יסתיים
הצהוב
קיומם
שאחרים
##בורן
213
##use
##וצו
השלושים
תוג
פייג
תהי
דובד
בשיח
לדרגת
נפלתי
##akim
ישלמו
התוק
בקיא
בדירוג
והקר
ללונדון
יצירתיים
בודדות
ב5
להבה
יצירתו
החסר
שהפר
לישראלים
הרווחת
##יעתו
know
כאחת
המלכים
האמבטיה
מלשון
apple
zion
גישור
לסוריה
מודאג
vol
הממשלתית
##מכרות
סיק
בטחוני
הסירה
##וחק
הריסות
##87
חזרת
עוטף
השתלט
הלבנים
המחוקק
שהגישה
פציעה
המכס
רווקות
##זיס
לערבב
הריצה
לחלופין
##אלבום
לבטח
יצוין
מאחלים
אמצא
התקשרות
לשות
קיבלתם
פואד
דפק
המשמשים
שנדר
##ללללל
ננע
ליחס
מאוזן
שמוביל
לגמ
חיית
לייי
קבועות
ריאות
מיח
##נשא
##ההההההה
במיני
פינג
קופי
הכש
תזכיר
פנלים
ראם
חטיבה
טילי
הדמוקרטי
##קטע
נשמעו
מסרבים
הנגיד
לידיו
למפעל
שמאז
ומגוונים
איג
במכירות
מאט
ייכנס
בלגי
הקמתה
לתקרות
##וציו
שבתי
מנועים
שלטונו
הכתובה
שולל
הביז
נקניק
##מריקאים
ריסוס
ויעיל
##חט
לקמפיין
##פסיקו
שליליות
פריחה
##וסטי
##פיפה
נשמעים
רשומה
ב4
נאם
קבלני
המסיבה
##לבו
##וגרפית
##כזבו
לפארק
להקליט
החצ
הגון
ביצירה
##их
הנכות
נפגשתי
מצהיר
anim
##סכם
##לביה
##חזות
מתאה
הפועלת
ממאה
דרומית
נזכור
וכוח
1958
ושנה
אפיק
תאהב
חלופי
המושחת
vip
##ללים
##rol
האיטלקית
##רחורת
ליברפול
מכרה
סגרו
תבקש
##גיר
בסקרים
בצעד
במילוי
מקדים
וכע
תיאוריה
חכמת
תנובה
ארוכת
מלאו
לשניה
בלאגן
נוצרי
תרבויות
מרפי
סלומון
הכעס
##נדרט
נשארתי
מזלזל
##פושת
מנתח
מבלבל
הרבע
ושבוע
מבהיר
בחופשה
מגייסת
ריבה
ברזילי
מההה
בזיכרון
engineering
##fix
העלים
למשפטים
##רימת
שמשל
feeling
##סטוריה
##נסטרים
##ומטים
קטאר
בממשלת
הקורסים
##93
נשמר
לנקודת
sub
משפטיות
סקוט
##טורי
התומכים
##דדד
מחייכת
##גולה
העשו
מחומרים
ולבקש
צווי
קדיש
בהיעדר
##צרטים
במשפחת
חסום
נסראללה
בפרלמנט
חוסם
וחזרה
סוללות
החלונות
##רצחים
באיו
כלליים
אבלים
והשלי
מחזירים
בשפיגל
להבנה
תמוז
##יופיה
הנעשה
אגודה
mt
לראשי
געש
שניתנו
##מיכות
התיישבות
העניקו
יותם
המוצעים
❤❤
##ותים
צועקים
a4
social
שעלי
מוסך
הורדתי
הצעדים
##יקלופדיה
בשנית
המדף
##וויי
##ayin
לאתגר
נחוץ
שהוגש
##מודדו
הזהה
מעיני
כשהש
הבעלות
שהשק
##ךךךךך
##ליטי
לכס
כריות
צלילה
משירות
באוצר
לכלב
אנטיב
מבוססות
במילואים
##חותו
יוזמת
מילון
לרוסיה
ההתר
איף
ההורה
בחייה
ומבקש
ומוסי
קיימא
##יגי
התבוננות
המורשת
arch
נשרף
only
##ика
לעכב
בפלור
לאפס
בדרכה
והברי
הפכתי
דרושה
הפינוי
##עדית
ההסברה
פיתה
זיכוי
##инг
מדיטציה
שטיפת
names
לקביעת
egun
ממערכת
חסות
נחיתה
דביר
הפניה
מנהליים
האלכוהול
לגזור
1962
דלה
ווינר
ושמע
יתרת
במחלות
##yl
ויזה
סמארטפון
##גידים
החיבוק
##שראלים
ויאגרה
הכניסו
אריחי
מקלדת
שבפ
##יטה
ובהן
חפירה
##😤😤
המשמעותי
הזרע
יקבע
##זמון
בשלבי
משקפת
למכירת
ישא
##ורייתא
last
האגם
ושבת
##говор
##חסות
יואווו
המכה
המדעי
הוצגו
##oph
שכשה
הרגילים
מגוונת
aqu
מסוכנות
מגרמניה
ספה
##ובילים
המתמודדים
בחייאת
ההנאה
ששאל
משלנו
למתחם
להשלמת
##בער
האפל
לתוכן
רסק
##ואית
##קסם
מאלומיניום
פשעי
השתלת
לאיים
להערכת
השיקה
יישר
החופשית
בבירה
##ירויות
סגורות
האחיות
יאמרו
שסיים
לוחץ
ההשתתפות
יריות
בחלקים
נבחרו
שמטרתה
##כתיים
הרכבות
report
ופה
ביבנה
קצוות
כבני
חפים
מתנגדת
בכבישים
הזק
בימ
בהלכה
ובטון
לסתום
קואלי
משוק
אנושיים
אודה
לכניסה
החתולה
מתנצ
חיטה
חוה
השתלמות
הפוטנצי
שוער
פועלות
פרצופים
קליני
משפר
הלוגו
access
מבוטל
הועד
##שתים
מבוססים
שהבי
##מרן
ויקי
התבנית
וייט
חיוביים
בסיור
עסקיות
הוותיקים
לקיחת
והיי
שילדים
רציף
##באן
מדווחת
הלינק
להקדים
##בקשה
##סלר
לגורמים
נלקח
בתבנית
tiber
פנק
החוט
לבושה
##ско
באדום
אמינה
##to
##רגה
בהשת
##לבומים
כלות
הפוליטיות
house
התקשור
ולעבור
הירקות
בועדת
דוגמנית
מתקבלת
מוקדי
мнои
נפגעת
לחייל
וגדולים
##רכיטקטורה
פרשן
ומהנה
##רגלים
עבריינים
nach
##פכים
מופלאה
שנפטר
מכספי
כתח
תקשורתי
וקיים
פריקסט
להנהיג
##פעלות
ישארו
##פקדים
מונעים
מנגנוני
אהבו
פנינו
conm
להליך
הישיר
##קתו
קצבאות
דרגת
ניהיה
הקדמי
ולגבי
ותקשורת
ייל
גלילות
כינה
המזונות
שעוק
המושבים
הוול
##フレ
לשכר
##תתתתתת
בתהליכי
במעלית
שמתחת
שקצת
ששיחק
שיחקו
הצעתי
mob
רהב
##itter
holon
הדלתות
לפסוק
ההישג
retweet
אהבתם
לברית
##מרר
זכרם
והופך
לפינה
המשימות
דיברה
טבעונית
##ואנים
פולחן
כנפי
הקניון
וירטואלי
מהליכוד
שיגיד
להסתמך
ולשמוע
לאק
שמתא
##idd
יכולנו
המעי
public
##לידה
ברך
מסוק
ובמהלך
טסט
פיצול
שבבי
האולימפ
בקבוקים
דקלסגל
ידך
פטירת
האגדה
להתגונן
לכסף
##😭😭😭
קוי
החייאה
##וגנים
fre
בכושר
מוזכר
הסופרים
סדום
##hd
מכניסה
בערעור
קללות
מרהיבים
טובב
כבשו
##משכו
הוכיחו
לסרטון
##ough
נפשם
ארוע
רובן
קשיי
בטרי
יורש
אונסק
ורואים
שוכחת
ואביזריה
שמאמין
המוסרי
לאחי
לכנות
עוצרת
כישורים
בחייך
##אריים
בנח
וירטואלית
יוקרתית
##link
##باح
הטמפרטורה
מלת
יעילים
fala
שנמצאו
שצריכה
quot
ושמאל
שהחוק
ההגיון
מכריע
בדחיפות
שיכולות
train
בראשי
בצרפתית
חומצות
##aking
למתמטיקה
החוש
צלמים
נתע
זולות
תיה
פסטי
דרשה
האדיר
פרופילי
ka
מלוכל
🇺🇸🇮🇱
##פצו
פטנטים
שקיבלנו
ומדרגות
מהילדים
hotel
ביומיים
הוצא
ber
מתחלק
ההצעות
gala
מצוינות
מסירות
habla
המעטה
נמרוד
##םםםםםם
לבוקר
חילוקי
תיחום
הסוצי
סטירה
סגירה
עדכני
נחות
וגאס
משדרים
##גוררת
וירטוא
המדרכה
univers
זנדברג
יחשבו
##וגלים
##דנאות
תפוזים
exchange
מתסכל
משתדל
למייל
conmigo
מלוח
סטנדרטי
שעני
לרכבת
נמי
##נונית
טמון
メル
##כילת
ומישהו
הסנקציות
##בריך
מנצל
שבתאי
הורוביץ
ברצון
##ואט
בעמדה
השטיח
ממלאים
חורון
セフレ
לבחינת
נמחק
קמו
1955
להלכה
משכנ
טכנאים
בעיצומה
ly
לבריכה
##מידת
טונר
הבולט
אופטימיות
למהלך
לאין
##וזרות
החזקות
היישובים
המצאת
1933
מצגת
קזינו
lat
поговор
תכלת
ומולי
במילי
לתביעה
##ane
qiryat
מומחית
המיון
המעגל
נכלל
לפוצץ
##פדים
במפרץ
מהמשטרה
שבועי
##ואק
להתיישבות
##ונדר
##שאירו
ועבד
העוד
ונגל
lang
##אבדות
בכה
טפו
סילבן
הסורים
לשואה
כשרים
התוספת
155
בחינות
מישור
תבש
חחחחחחחחחחחחחח
ישעיה
tiberias
מגעים
חוצפה
שבזכות
הסורית
נהיית
לאביו
נאמנים
במשימה
בחדרים
במלואו
עזבה
מניסיון
comigo
ושאני
מרקם
הוצאתי
1953
##roid
##דנית
תעביר
חולף
בעיניך
השלים
ובמידה
להמח
בחלון
כבדות
קלמןליברמן
נחסם
גרפיקה
מעטפות
קלטתי
מצלם
אקלים
דנו
בגזרת
פונקציונ
להוצאת
בתיאור
מלמטה
לטיסה
##נתחומי
nahariyya
לפטור
הרלוונטי
מארחת
מארגון
שמוליק
הנשיאות
מיועדים
לנהג
tam
##اء
לשיווק
התרחשה
##וכחות
ייעשה
לעץ
מקוריות
1951
שפעת
הקורבנות
הנוגעות
##נהלו
נפסק
тик
שיגיעו
הבעת
##וקרטיה
פוגל
קריסטל
פונקציה
וישב
צאן
רוקדים
##בתים
איטלקית
ההזו
כניסתו
שבות
equip
למינ
תקינות
מאחורה
אבוא
לברק
בציון
במסך
##سي
##קדוק
בארמון
בלייב
help
הפנייה
בוטלה
הענקת
##נטלי
כוונתו
נבי
להסדיר
והלך
שבלי
הלהט
ההרס
systems
ומתמיד
praten
בהתנהלות
##ורתו
חזי
הקבועים
שכיום
שנפלו
מעשרות
דרא
משקיעה
פוטושופ
משתר
שאליה
רשמה
rock
##צנזוס
הסינים
165
##חקירים
בעץ
shemesh
המשכתי
מיומן
##גודל
מגנים
שהתרחש
##נתון
שנגרמו
בשלושת
ליצן
ומבלי
מרקחת
##ие
##😝😝
מפכ
ובז
##ורב
לאשתו
המטרי
מבעיות
להיעשות
ומתחיל
shemona
##ומנת
והאח
##פיעו
הבושה
הסיכונים
לאוק
לפירוק
למגרש
112
מנוצל
דאר
קינוח
שנפתח
המשפיעים
השתמשתי
שליחת
לפזר
אלוביץ
עלילות
الاس
##צאה
במהלכו
כרוב
שלוקחים
מתלוננת
כשאי
הטרנד
נרחבת
התגים
קונט
##ולדים
##ומטיים
##טרדות
schem
280
עיקריות
##tr
##ביון
משעש
הנצרות
שמץ
##כרט
עליזה
בינם
דמיינו
נפרדות
שכאלה
הפרשי
doc
בביתה
פעוט
##עדו
שתיה
ובשביל
להיס
מתרגם
להחמיר
מהאתר
מהיו
##פארי
שגרמו
מפנים
seo
מקורו
התיאוריה
בגא
##маци
הכתר
מצידו
תקום
מביכה
נזכיר
קפריסין
##uz
יעזוב
לכוח
##זינה
רלי
מדויקים
המדעית
האסטרטגיה
##ומצת
העבירות
התאומים
וולף
##פולין
haayin
בנפח
gur
##ories
סופרת
אינג
בתקנון
тиква
##ini
מותם
##משיכו
מחת
מכובדת
שנב
לתחנה
אחרא
בגודלה
תיכנס
הסעיפים
משאירה
הסדנה
השידורים
הצפה
נהגי
פסיכיאטרי
סירבו
סנס
##עיניים
117
ארנונה
יפהפה
ימנית
רבן
מבולבל
פקקים
ii
לרש
שילוט
מוצדקת
una
בכתיבת
למאמר
מייב
המיועדת
בהכל
מחצבה
צעצוע
שייע
does
טירת
לחמש
בהתנחלויות
##מתים
תשרי
האפר
הערוצים
שריון
האמי
באופוזיציה
לתאם
ארק
רנד
סוציאלית
הטבלה
מוגש
למסך
לינור
בסן
שהחליט
הזוכים
דגמי
והגד
בפתרון
אגרת
סיפק
ההנ
חלבונים
מסתתר
וזור
ברומניה
פלדמן
השיקום
קרוז
המפתחות
שהסי
וחוק
הכאבים
lezion
מפורטת
דיב
##vc
אסק
##есс
הבוחרים
שיגרום
יתושים
לשווא
התעלמות
לניס
תוחלת
##ather
##ולחנות
hor
שחברות
מפחידה
##גדי
ליועץ
וארג
לאיזו
ונוער
למכשיר
המבוגר
מאוכזב
opt
##פטרו
יפסיקו
mich
ששמה
כשבר
##aper
##נטום
שהסרט
אשלח
שפגע
לוינשטיין
במערכה
הסלע
הכנו
##دس
ליא
ואנטי
הכתבים
ניידות
נבר
בקא
במערך
יעמדו
##זקי
לאוניברסיטת
מתיחת
קוקו
להגדלת
המחדל
בבגד
ליפשיץ
##חויות
הלגי
ותהיה
group
ba
תהני
הקבועה
אוכלוסיה
דמשק
##הו
silver
והארץ
במצבו
ואושר
בשירה
פילוסופיה
למשחקים
שומנים
לדו
בוגדים
##לקוחות
המתנגדים
למציאת
מסו
מתגורר
##כפים
1954
רשומים
המלה
ממצאי
##סטה
365
בטלויזיה
##83
החינוכי
##ific
מגבר
##רוזת
החודשי
נגה
שואב
##מבק
הרווי
ומתוקה
הלוך
בכיכוב
הקליקו
gran
##מרקט
ורמת
בנית
הרץ
להתבטא
##שונו
שיאפשרו
עתידים
חומרה
ראשות
להקריב
קצבת
ההכרעה
בהפגנות
מזויי
cy
קפיצה
הלוג
gener
במישהו
לארוז
שכותבים
הכובש
לחובבי
##פללו
ללשון
וסרט
ריפוד
לסלק
הביצועים
מתקרבת
fuck
##וננה
שופינג
בשטחי
ניתנו
קטלני
שממנה
כפוף
לעורך
כשס
##лект
מהמצ
שבמק
צורף
מפתחת
זמרים
מברזל
##ita
פורד
גריל
ידנית
ראשה
גאו
שילך
לורד
פנדל
תערובות
היהודיות
בגוון
alb
מלהת
קבורה
צוללות
לצמוח
אלימלך
פרויד
בחיבור
##wn
באבנים
שלפנינו
מפסידים
רווקים
even
ידידיה
אגדות
בכנות
ומציע
תארים
שחלקם
יפת
בעיצומו
ההצלה
לריצוף
והמר
בדימונה
צבעונית
העומס
הביעו
שברגע
תיד
##וריין
לתעשייה
מודעה
פרות
הידעתם
חוסך
לרצפה
##dd
הכפתור
לרווחה
והוע
לתוצאה
תמימה
ליאון
##יאנית
הפקודה
park
לשרה
לשפה
לכלוך
בניצחון
ועלה
commun
ההפתעה
מודרניים
תשמור
ניידת
שנשלח
גמילה
לפצ
אנושיות
המייס
##מילי
מערת
129
##hing
מביע
##ולוגיית
attack
הפריע
סבירות
##any
אפעל
נעלמים
##פעילים
כיסאות
משלושה
der
מצביעה
שנל
אבה
אוניות
לסין
אבותינו
מאמנים
מנצלים
טינ
אקבל
##רטווטו
מהמשחק
חזור
הממשלתי
וגרם
לברי
בקי
למשחקי
קוטלר
הצוואה
ימית
אוצרות
חיבר
במקומה
ממתן
##קדים
בחופ
##טוקולים
לסלון
הנוצרית
להתייצב
קופון
באביב
הירוקה
דודים
סעי
ולשנות
התגור
בקשתו
לעו
##גיבים
שולטת
קניין
החתולים
השארת
bit
ממשלתיים
ובדיוק
מעמיד
שישב
התקלות
פינק
התמכרות
ידידותי
##ью
116
עאלק
הדומה
מטיל
פאנל
תנצח
נדירות
אדריכל
##דניות
השונה
ואצ
##ley
##טהר
מצול
drive
מחמם
ההווה
למערב
מתאפשר
מהימים
galaxy
שנפג
משפחותיהם
לתמונות
באיחוד
תימני
טיילור
מהתי
שמראה
בדל
במשלוח
##מפטומים
ב1
החנוכה
בחבל
צביה
שחוס
הפירוש
ולהשתמש
מתעניין
1959
סרן
למצות
פניהם
שחוו
מוקדמות
הסדרות
ולהרגיש
שואף
נמדד
##מקה
טובבב
ותראה
begin
ברב
במסעדת
הסתכלתי
ofakim
##вен
להרדם
בלהיות
שהפס
משימוש
עתידי
##וטבול
תלמי
האגדי
איבוד
והתר
בירך
מתנדב
האמצעי
בשווקים
חוויתי
האפליקציות
אורטופ
ערביים
מבחני
האוטובוסים
##oms
הסמארטפון
משתלמים
birth
equipment
קנאי
קסמים
האוקיינוס
היצע
איבגי
הירושה
וגורם
שטן
להישמע
בגלוי
בחילה
שקדמו
##ka
החירום
מאפיין
ועבור
##ries
קופסאות
שגויה
מעליו
בצבעי
זצוק
הבטיחו
מצדה
חוסל
במסעדות
joh
בכוונת
info
מתכוננים
פטרוזיליה
יאה
עדנה
му
גנרל
קטין
זכאית
וברגע
2020
בגרמנית
הקואלי
עימם
בארצנו
למחות
לסעיף
המערך
משתפים
bos
בשמה
מכריז
לגלגל
##פנת
הסבירה
ההגבלים
1952
מעטפת
התרבותי
##מולים
כיי
##רוצי
##פרסמה
בלוס
ההפוך
מסייעים
מרגשים
##יקרב
הגבעה
הסטודנט
cook
במצבי
prefix
##נסר
חתולה
ארא
בהנהגת
איימן
לנדאו
##ior
מהזמן
##פרא
בהתח
למין
לתיאור
ויתור
אטרקטיבי
מהחדר
נמכרו
לילך
וקורא
במצוקה
мет
רפואת
אלתרמן
##ובוק
##יוטיקה
היזם
הצהרות
בתפקוד
##ely
כמדינה
ממכללת
##😵😵
ממערב
namespace
אבקש
поговорить
וגורמים
ואופן
שילמה
לקוחותינו
במסגרות
עימה
לאלפי
הדה
העצמה
קנתה
##🔥🔥
הרוע
##עלמו
אקוניס
##תיישבים
כרוכה
ומנוסה
באזורי
##נהגויות
az
להמנע
מהטוויטר
בהובלת
מבורכת
וכיבוי
ביוזמת
ועצב
להשתיק
שמצי
take
אנל
ביץ
##ograph
ייעודי
לתנועת
מבטל
שחזור
מלג
נשאלת
רוחניות
מגזר
הטוענים
מרס
מרענן
##حد
כמס
קטלנית
שכא
true
oecd
מסוריה
מכפי
בתפילה
מופיעות
מקבלות
שבגל
##חזים
אדלסון
רצועות
נתפסת
תוכנן
ובמחירים
בם
סודה
קרבי
אסא
החניה
הנסיון
נוספו
ולעזור
הגשה
העונות
משגב
תוסף
גמרא
כדברי
שעמדו
##ract
האחורית
שבאמצעות
טקט
והמדינה
מחמיא
123
הופכות
קיצר
ולהוציא
לראשון
##שטש
ic
מסמכי
שבדיה
הדריסה
den
dig
ביזיון
שנרכ
להאיר
התראות
תשים
ובמו
##ду
ואוב
לשעת
בסוגיות
יגדל
##סמים
שמחזיק
העמוק
משוחררים
משרתים
ביטויים
אהרו
הפוסקים
קריסת
סוכריות
שפטל
##לנו
חותמת
לוועדת
הוקרה
##ira
מכלי
אספרסו
שבעבר
רטיבות
שיחזור
ואישה
לכאב
##עוררו
##ать
המזע
רבתי
שהמורה
הפריפריה
##בדק
וולפסון
והמפ
תחפש
שבנה
לתופעה
אגפים
מושפע
נענע10
הפיי
צלי
##וקסי
ותמונות
##חזרה
הטופס
דיזל
##arden
נבחן
הנחיתה
ב12
לטענתה
מובנת
משיר
##יקרה
והבל
הרשמה
המופתי
after
הורגים
ספיישל
לנסיעה
שיודעת
nit
למול
ההתייחסות
במקורות
ged
מדא
אקדמיה
האזנה
מפוארת
ורשה
החות
והמשטרה
##דקנות
##ניץ
המלונות
מדכא
בנווה
התעשי
מהרג
פקודות
ופיק
משקרים
הערכ
מסודרים
ספורטאים
ייצוגית
בנטל
כינו
סבירים
אדומות
##וצרים
הסתוב
האומות
שרצו
שהמציא
אופני
המוקדם
שהורשע
виде
מוחל
המילואים
המשכורת
להימשך
##פקח
##יווג
בטטה
סמינר
הבידור
##יווך
ריקודים
הקרבה
הבדואים
הגרי
הצדיקים
##ovot
מוזיקלית
הגברי
זכינו
סדן
וגב
##ליסטים
כרב
כרום
שייר
כחודשיים
לפולין
הוויר
שתוכ
דחופה
##שרדו
הביצה
מצביעי
והיע
##osa
לטקסט
הפיצוץ
ריקים
##בונה
לגינה
וכר
מרוסיה
בוטנים
שיבואו
ירמיהו
גנטית
במסגרתה
דוש
ולבן
לסרטן
טרגדיה
בכף
114
עקרוני
##אגן
الد
מיליארדים
האמריקנים
במרי
ובניה
שמופיע
פשר
##ונדק
השיכון
הסוגיה
דאבל
אישרו
רכז
אצא
##פאל
##ודרות
ההייטק
ינסו
תחרויות
המשותפים
רכשו
מטל
רימונים
ההקלטה
תרתי
петах
אתכן
##ברכים
שהתה
##ובשת
ברמ
ותפ
לעימות
שירד
מחט
הנאמן
הפרסומים
##ged
נחשפה
רוויה
שמזכיר
הדאגה
לרפא
העיתונאית
שהני
bonne
שידעו
הרגת
תשאיר
נפגשנו
##بر
המשמר
שאמרה
מתמודדת
לייחס
minister
טעימים
בקובץ
הצפויה
מזרחה
סלים
##צחו
##לקוח
לצל
וייעוץ
במיש
שכיב
פאשי
התנחלויות
תבורי
המתנדבים
מגניבה
תוצאת
מפרץ
לשהות
ומוסדות
ראיית
jour
##uel
החליפו
שוכנת
gift
##נקורן
ok
השוא
ובמשך
##זרקה
חולדאי
בקופת
שברור
החטא
##ןןןןןןןן
ילדינו
במסיבה
מתעצב
יחליף
חידושים
דוקטורט
מרקו
בארבעה
הליבה
הביוב
לתלמידי
יוקרתיים
פומבית
##צועיות
מערערים
לרכז
מקיימת
##והן
ריחות
##קוט
כוחם
למשימה
ולזה
ירוחם
משכנע
הרווחים
להיערך
הגוש
מודיעה
חוצות
קוני
במקצת
##ביבו
##טינק
tab
כמונו
שקע
סיליקון
##נען
hah
בגבולות
תקועים
להצבעה
רווחי
לחן
לפא
תשאלי
שהוט
טוהר
פוחד
בלעדית
זריקת
יופיעו
לכולכם
מחוברת
ששוב
המצרית
שקניתי
גאל
##גחה
שלטי
הרישוי
גוברת
הגנרל
נבחרי
sms
העומדת
תגיעו
במדור
העממית
היעדים
גילת
##וסקר
##קרנים
בתיקון
שאהבתי
##💉💉
##נדסת
מעצמה
##דינג
##קויים
להרי
##שתף
ולצע
נדון
משכנתאות
שחבר
שפעל
לקלי
##נשמה
הערביים
זרקו
ולבני
שמורה
ביומן
הוכיחה
במדיה
yam
המזה
ותכנון
כמפורט
וורדפרס
##from
תוביל
##טיל
שמגיעה
מופרך
והפכה
פגעה
ההאש
במתקפה
הסגנית
head
בעירייה
מפורשת
הטכנולוגית
אינכם
בטבלה
שאוב
##other
##מטאות
##фар
החלפה
שבתוך
לחנויות
מקליד
אזרחיה
שבצפון
lim
מניס
##מפינג
תחתונה
tour
pp
שאיפ
ילדותי
בארוחת
סלטים
שפתאום
ביננו
בשמירה
הטכני
##ירס
חיוניים
##ост
משתנות
סלילת
לאופן
המקוריים
בילו
הקדומה
פוגשת
##ופיל
הטעמים
##ייעת
לשמו
במזל
ורצון
סכינים
בארגונים
התבר
##מפרטורת
##so
מסירה
##ובהר
ובמקרים
תרפ
ואינט
הבודה
עלילת
ניצבים
ליבנה
הדימוי
יינתן
ffil
השיקולים
urn
build
לסע
פאול
מהדי
פגעו
חבריי
ההתרגשות
שהשם
##טרול
nothing
##sa
התקשרתי
בנייר
##ורתופ
לחור
ובמס
הספיקו
בקיסריה
העדיפויות
באונס
מומחי
סיימנו
והטי
ארלס
לסכן
##ole
##וארו
##👎👎
מגישה
##ילתו
אמיצה
##ודוק
קהילתי
marketing
עמידר
גידור
יחת
מכנים
להארכת
מתוחכם
אימת
ודאות
טוא
ולשם
המוקדמת
במינ
החרדה
מכשול
בגאווה
ולהד
ולתמיד
##ונרדו
ביציע
בקליפורניה
היצירות
נלחמת
בתדירות
וחק
המרוץ
מהבע
ופירות
צרור
לחצר
בוחנים
1957
בהתייחס
שכאן
מוסא
קרול
ברובו
ברוטשילד
וינשטיין
מקורב
תינתן
חמוש
מודרך
##94
לפניה
אליזבת
זמננו
נשמתו
עיניהם
שקיימים
שמעה
שרעבי
פקד
שהכול
דפוסי
רזיאל
פאב
בצמרת
לזרום
טעון
דניאלה
##edia
שנקר
נאוה
##בץ
שהמס
ומראה
בפסוק
יועצת
בחירתו
תעסוק
תתקבל
הזויה
##דקק
לקוי
##פאר
הרובע
הנגד
ברנד
פאן
##כולים
הקרקעות
الخير
כשג
##iva
לשנתיים
בסוגיה
הסיטואציה
ניסינו
הניחו
השרת
למתחרה
schemas
מבעוד
המשפטיים
סנטה
נמנעת
הכוללות
מוטה
מובנים
אפרופו
##זתי
צעירי
גבו
במקסיקו
##ופלת
הזעם
וטעים
ган
מאפרת
הורסים
##יקרבונט
אציין
##בוקס
מלוכלך
בדקות
דרק
רווי
מרזל
##מיתות
ולרוב
לוועדה
a2
השקל
אומה
אסתי
אסורים
וכלים
האיראנית
##ופיין
משתתפת
כפרים
##נציח
מקסימים
זח
תחרותי
##וליט
נינו
##נצים
בבדיקת
כמב
פסיקת
риш
מאבדת
תכנן
הנוספים
##צולי
##כזריות
במרוקו
העלויות
##מלכת
כחולה
נדקר
##טרום
וחשבון
ולבחור
גרפים
שתדעי
בבצפר
תוותר
שלטע
##זנט
קטלוג
בהתמודדות
##ססס
צומי
לנתיב
למופע
סליחות
ההשקה
ניחוח
בחקירות
נרצה
##וברי
שאומרת
אורט
ומאת
bbc
הידרא
מוכיחים
ניצלו
information
ומזל
ישמעאל
plus
##סאפ
##ures
ויוצרים
כבשה
הודי
פרפר
מהנדסי
באוטובוסים
לדלג
ang
מהיכן
נוגעים
בתחנות
פסוקים
בתאונות
מעייף
מעוצבת
ומצי
הורות
שורף
##لسط
רפורמה
מהטי
wr
לידיים
הצבת
החסידים
אוריה
שכללה
صباح
האורתוד
קערות
מכוערים
הבסיסיים
לכיכר
יגור
בגמרא
וליווי
זורמת
מקפיד
רותי
וסג
הונאה
לידע
עקום
שנמשך
max
##נזי
נוסד
סוכנויות
סיעוד
##כוף
שייט
סוגיה
מפצ
שהתחלתי
אפרטהייד
מאבן
מאנגלית
וכס
במחבל
יבן
לריק
למאות
מגולוון
לשאוף
וינגייט
##נמה
giv
def
##ij
הכפרים
חשמליות
הפיכת
כריז
המפקח
בשערי
מתפקד
יוציא
ey
gem
##אמות
ארצנו
ולהתע
האבטלה
בקוד
בטקסט
נציין
וכולנו
לתעד
ליבוביץ
видео
אכתוב
דינא
שישנם
ודוד
דמותה
אווה
##נשן
כיבוד
##ense
לבלתי
ייראה
הגמ
מזבח
הובאו
##וקרן
עיניה
תוריד
בהשקעה
פולארד
ביישום
השיתוף
יערות
ההחל
משפחתיים
ההמון
המיניות
ברובם
בx
תכנות
לפול
פגוע
השפות
##נטינו
בחד
סופגניות
פריטי
להשכיר
מהימין
##uf
telaviv
ולשלוח
נזיק
פיננסיים
הכותרות
לשירים
טכניקה
המתיחות
מאוזנת
סמרטוט
מרתקים
רית
אקרי
זנות
בכלום
בהתלהבות
כפל
לקשור
רוזנברג
בהזמנה
##דוק
המציג
##לתות
בחרת
ניווט
זעיר
קברו
##ся
מעונות
any
להתאכזב
סודוך
ארית
התקשרה
הבשן
sum
יסודית
rehovot
##טלוויזיה
פוריות
כדבר
לופ
עמאר
המליץ
##לבשה
בעליה
##rad
צילמתי
זרו
##נפי
שופרסל
ישמש
הנאמנות
פקוק
עקבי
יוכ
מספרות
##בניות
אליקים
וגן
חניון
בישיבות
וייתכן
ומנכ
##נצנת
##ран
אופנתי
צפוף
למני
אילה
##נכם
קציצות
פולימרי
הסימ
##ליזציה
sap
חגית
ואמנות
##מוטטות
שכותב
להדיח
זנב
מעון
mr
נעורים
אבחנה
רובנו
##ירוגין
אחיזה
מקצת
החילונים
##זוז
שניכם
##רדמה
כבשים
השפיע
לארבעה
זכי
##אוט
השכי
יזיק
שראית
הנקי
הלפרין
רצופים
המהפ
##ashion
ומשפחתו
מתחברים
שבטי
הקטין
חרטה
נרדמתי
glob
תחשבי
שקמה
וקטנים
הסתכל
זהותו
המעקב
מטאל
##orm
בעלייה
עיוורת
האוכלוסין
שאיבד
שהקב
הקרנות
השותף
בחצות
קטש
##חלוקות
ציטוטים
מלאכות
הרישיון
הלהיט
שנולדו
גיק
ישרים
העדים
##91
כחולים
ובמסגרת
אינטליג
במילא
באיסטנבול
משולבים
##ביישת
שצה
במשותף
פולני
יצוק
##וויטש
נאמרו
גריי
מצטל
הלבוש
מתנהלת
רויאל
##וכחת
##ike
מאק
הריגתם
גניבת
##שבי
סטטוסים
בשיט
יחזיר
קציני
ai
תוספי
שירותו
בהיבט
הרפואיים
going
בגלריה
הסברתי
אוטוטו
מחיפה
לקורא
דייי
מהקר
שתגיע
במוצרים
מאבטח
לבניינים
כפייה
מתרגשים
אטל
##ומב
מגבת
יחידים
תמימי
מדעיים
תבלינים
##חילי
וכח
תאיר
ביוקר
rabb
הלומדים
קפא
ליכולת
וריק
כאפה
##ikh
ניסוח
a7
ולאכול
יערים
מתעלמים
הנגר
אפשריות
ההיריון
כמצ
הצבעות
הסתדר
והפס
##חדשת
קלינית
וסבתא
לצעוד
##аб
להציק
הזכייה
לעשרות
החפצים
נטולת
##כסה
הכרויות
רווק
והמשיך
##חזרו
גניבה
להתראיין
משלבת
##סטרי
מרצים
מופעים
בכיפור
והשל
הפילה
מפרש
##ייפה
נגדנו
הערר
לסבתא
המלכותי
שאיפות
##נתנו
ושקט
אורכו
מובטח
##נסיבית
##בדיה
ומכירת
טפחות
##נומטרים
מאשרת
סובלנות
##רופיל
##row
המנגנון
displaystyle
בולגריה
הנוכחים
##קצ
החפץ
ויאמרו
האינתיפאדה
##ץץץץ
אדיש
##וקן
מטעויות
leg
אלבז
המוצע
בפורמט
התאהבתי
עבירת
ובניית
##זיים
אלמלא
המקלחת
כללו
הבחנה
תהיינה
אובייקטיבי
מכבים
##ious
והגנה
##הד
בהוצאה
עממי
מהממשלה
שמשתמשים
land
הוחל
המופת
סיגרים
מכשולים
smart
המקד
המניע
sing
סובב
אורון
השנתיים
צעקות
heart
הניתנים
הנדי
נאלצה
דייויד
נצחון
הרגשי
גלגלי
מוגזמת
להחיל
עופ
שקרי
נסעו
האשמות
##aza
שבויים
ברבי
הפועלות
במדד
צוין
##נבלום
שפיות
התקפי
לסופ
שחייב
משעממת
נפוצות
##ces
מנויים
נפול
צדדית
ולמען
יצרני
שמורת
עדשות
קולטת
ספריו
ניט
ענקיים
המרפסת
##וסית
העדכון
ההתקדמות
##ste
בתפקידים
ришон
##ריטוריה
שוהם
חרס
בראשותו
מסורתית
##יתיות
לאירוח
שך
לביסוס
ומקבלים
הנישואים
מחזירה
בידע
והשנייה
ויטמינים
תנסי
##קלתי
להפעלת
הסכומים
סאלח
##ותיר
סדנה
לסגירת
להאכיל
התועלת
מאמרי
las
ni
בהליכה
ברמן
שבזמן
תארו
המוטיבציה
פינוקים
##ודרג
התנאי
color
שהוגשו
##ייעים
והקמת
תגלו
יתי
управ
יקב
הצהובים
דסק
##86
##כמו
##ערער
קארד
##טיג
ידני
תסתכלו
עולי
ללחץ
##עשע
מיין
מבזב
##ности
בלם
הכיתוב
רגולציה
השקיה
שבאי
##וותרו
התעודה
##oker
##סטרים
שיתקיים
השריון
ונר
והעיר
שדברים
המצביעים
משוח
בגרסת
##וכנה
לאוניברסיטה
##עותיו
להתה
##דיפות
הנקראת
##וצמת
במסורת
לתקוע
יתברר
כימיה
התפוצץ
##צייה
מהמרכז
хол
טיסת
ישמחו
יונית
חמוץ
vers
##איבה
גלגול
דחתה
שוחט
בארגנטינה
מרכיבי
יעביר
הרואה
מכרי
להמיר
בהפקת
להתנהגות
אירוניה
האינדי
המתקדם
למשקיעים
##🙏🏼
רשף
קופסת
מחסני
סלולרי
פיתחה
שונאי
יפעל
במיקרו
יתרו
והחיים
תשלחי
בדידות
##לללללללל
תאר
והשאר
מעשנים
ישות
סקסית
פוטנציאליים
ייה
הפתיע
החרמון
210
האופטי
rob
ההודי
חללים
יוותר
מסתיר
נפוצים
קלפים
לרפואת
יציג
מלל
מהים
a1
pay
##ments
הצינור
##ado
וראוי
הוריהם
המלאך
דס
לן
לדירות
##נפלקס
העריכה
לשוני
natural
היבט
בגופו
##צדס
הפילוסופיה
הגעגוע
פסיפס
שינויי
נצליח
##ues
ריפודים
סיעודי
##פודים
הכדורים
פצע
ב7
מעייפות
##يين
ולמע
אוניברסיטה
עמלק
שהדרך
##חשוף
היבשה
תחב
הקדמה
בלונדינית
king
ובאר
שיוצר
מקומ
המקסים
עתידות
מובייל
נכנע
ותוכלו
יידיש
האריזה
גבעות
הכינה
מתפתח
נאומו
הכרעת
האסת
האפס
תמוה
במעבדה
##لسطين
לעש
חולקים
מידיי
לארבע
מחברה
##מקים
##נלא
##ities
הדיוק
##בלטים
sha
התשוקה
הנפלאה
האירופאי
cnn
חלם
מואשם
עצומים
##ינגר
תוויות
מסגד
לבנט
שולמית
המקלדת
החיובי
##טיינות
לסירוגין
וילד
גונן
במרח
בעיטה
הזול
בכיתות
##פקדת
לצמצום
##ווילי
זכרתי
סמואל
דנמרק
מתמשכת
тех
הפד
שנוצרה
עוקף
ליצר
כופר
וגיא
דגלי
הטיולים
לייט
##аз
ובעוד
שהשנה
שרשור
לזיהוי
לחלון
הערת
##ork
בריח
ארגונית
##ונטה
הסוכן
מפגין
##كم
אנק
קריטריונים
טכניים
cur
פלסטיים
שבכ
الاسراييلي
להצחיק
ענפי
והאל
והכול
להתעצבן
##cript
ותראו
מחזקת
כתם
ליאל
השול
הינך
במשנה
שימושים
##פיעה
בהפתעה
לשחר
צמחוני
הסב
המרוק
שיתופית
תתפלא
##גולת
השיש
לאפשרות
חרקים
##alth
מסטול
##טוריות
##גא
היצור
##ular
בונד
שלרוב
שנחתם
אלת
ספורטיבית
בהבנת
סומכים
המלחמות
מותאמת
os
והמי
ישבנו
##צלו
האלי
ההתרח
בעסקים
מבצעית
שהלי
יחולו
שמתם
היוש
##תיח
מסיר
אנדרי
המוזיקלי
להפי
עתק
מוצגת
לחוד
##דריכלות
##חיה
חששות
לולי
ובאמצעות
סבלו
שבוצע
אהרוני
בלבוש
קינמון
לנסיעת
שהעלה
כאמצעי
המבי
##תימת
טמא
התגל
בשורת
ומרח
ומאידך
בחיוב
סיבת
המשלבת
והוס
נוזלי
##תינו
מואב
מהתק
ian
היציבות
מעודדים
##קמים
החופים
האורות
בבניה
##גשוג
כליה
##טיפות
הקדיש
##נשיו
סחי
והנת
באוניברסיטאות
מריחואנה
התקלה
הרגשת
סוא
כתמים
וארבע
הרד
fore
הנטייה
חושפים
ברגר
בירות
ביים
וזכויות
מעצרים
והפכו
##חחחחחח
מתקנת
ומחכה
תמימות
hom
##סיסטים
ברפ
חמוצים
האזרחות
בנקודת
аш
במשפטים
בתצ
פילי
אדבר
הכותבים
ומכיוון
התעוררות
אמונות
חרוד
יצוא
ידועות
sound
הבקבוק
לקחנו
##כנזים
ומתק
הקדי
קיא
mill
תבחרו
מתכנת
##פרצות
הגובה
##vo
לפניהם
ולפעול
גבעתי
לטלוויזיה
הציטוט
בתוכי
טליה
סיירת
מציעות
להתפרנס
ללפיד
הפטור
העותרת
גואטה
אקראי
מצטיינים
איכילוב
חתך
טוד
הצחוק
תמכו
במגזין
המצות
השן
ראשים
לגולשים
לסדרת
אביא
וליל
גשמים
##פריות
סטודנטית
תנא
קיבוצים
שלמ
מערכ
כנשיא
למינהל
שבעקבות
במצפה
העמודים
הצייצ
הענן
##לחי
להגברת
конс
gol
גרש
קבלנים
мар
לאיל
מתוקף
הותיר
האוסקר
הצנחנים
גרירה
רוקח
הראי
הנפגע
שפעלו
metal
יסתדר
ор
מסית
הצמדה
##uctions
בפקולטה
שולה
בחרדה
מופש
בפרדס
המטורפת
מוצע
אתני
השית
שישנה
מטופש
הקיבוצית
##fromisrael
שלמעשה
שישת
נבע
פושע
בלוקים
ורבורג
הייצ
##שפז
מזעזעת
ירין
עכשו
##גניה
##צעק
פטל
##נקשות
לסמל
קללה
אירופאי
סכומי
##בקשי
פדיחה
בהכנת
ולטע
נמנים
##ריג
מעבדת
##❤❤❤❤
החליפה
מטענים
הסמוכים
לירדן
אפיל
וקד
קשקוש
הרצויה
ברווח
לגרור
טיפשה
ליהוה
4x
החולפת
תכני
העוף
הבוג
הזית
לטענתם
##ani
שידורים
השכינה
קורסי
המינהל
דחו
באטמן
לגירוש
יפתחו
זכותם
האחדות
מסמן
הבלעדית
נמכרה
instit
וחדש
והתוצאה
לכרם
מוצאי
קסומה
והכוונה
view
דאגו
שוקלים
מהמצב
##קונס
המצע
##عة
מיטת
##אליה
נאט
תמותי
לאוטו
מתיר
התגלתה
דיכוי
גישות
טקסי
##זימים
למאמן
עדר
היפנית
פבר
ממתכת
להתבייש
בלוז
פילבר
##בריק
שוברת
מכוונים
נקבעו
הישראליים
צדוק
שמעי
ושלוש
##שטוש
##ונדה
יגלה
למדת
ומשפחות
שכואב
פחדתי
נדבך
במחנות
ברייק
מזומן
במדויק
בריטית
בדרבי
law
רשמו
זרעי
סקרנות
עילת
חוקה
cd
##צאו
האנדר
הכרות
בשיק
sky
ליחידה
##ויתי
עקבים
ועשרים
אחרייך
באוכלוסייה
גישת
##лия
##וזיס
bless
ומגוונות
הטרו
האיזור
אייס
הפנאי
שיגמר
טבק
אברי
שבמשך
##פסיה
להתראות
הסתיו
الش
טמפרטורה
##😏😏
חומרת
סלאח
הדתה
בקופה
גבורה
הקונה
הנך
##זזזז
לנתב
##נטישמיות
סורוקה
dvd
##ורגית
מוצק
כיע
תפגע
היושב
שיווקית
##רנו
החוכמה
אבטלה
##ובספוג
##שששששששש
##שין
לאוזן
##פיחות
באלפי
שפם
שקופים
מסין
פרישתו
ומול
חזרות
התאבד
באשמת
בסולם
##💙💛
המהווים
הדרבי
בהגזמה
מתנדבי
יענו
פדי
הבינוי
stre
טוסט
ופרסום
##וזו
השערה
הכרם
give
יציע
u05ea
גויים
מפרגן
הסיעה
שתקי
שבחרו
בהגשת
כבעל
גיסא
ישפיע
רמקולים
מותאמים
מעצבי
מוכרח
ונגמר
ke
מימן
החושים
יחשוב
ואיי
המטורף
ונסיון
רכות
מוגדרים
ופט
בבלוקי
דמעה
שתרצה
לינץ
android
##נובה
איזי
##ator
line
##תתתתתתתת
בשיחת
ששיל
תיכונית
ולשפר
##כוונת
שואפים
מעצמך
גורמות
מצידי
ציוצי
זיקוקים
rest
הסאונד
ושיפור
##😂😂😂😂😂😂😂
יחיא
שעומדת
gedera
##ומתה
אמסטרדם
גופת
ואמנם
טיפולית
רחם
lo
הזקנה
##טאג
כשאנשים
עונשו
משמעי
##עקו
בתג
##ניזם
למסגרת
important
הפוד
להכחיש
1935
##ality
גנדי
ישלי
להעלים
לטיולים
עבדי
לבנת
##נגשות
במניות
##דווח
פסים
למבוא
שנתפס
ار
כדר
לאלון
טקסס
המיוחדות
עטיפת
באדר
וניור
מצער
אגוזי
גטאס
##0000
סבורה
##וזק
הכיפה
consult
אהובי
הצפנה
יישומים
כנף
גינס
נושם
המונדיאל
ההח
מתקת
מרש
תהום
נקוד
121
##hen
ישכח
מתואר
ari
למגע
להצלת
ריקות
views
סנג
אוקס
התיירים
##גורם
בברכת
ההישגים
מרוקאי
המגוון
security
מלאכותי
כריתת
מצטט
לוחמת
מתרכז
מזאת
הגרון
גולדין
ורדן
הבידוד
כימיים
לסכום
מקרון
ההערכות
גזל
מעגלים
לנחל
אולפני
##👌🏼
מפאת
המייצג
מדריכי
העשוי
צבאיות
חתיכות
ותיעול
ועדי
ומאי
רחבות
חוליות
cs
הפוגע
144
ונותנים
שגיל
##וזל
ודא
כותנה
מאני
ההסכמה
לעצמאות
לעידוד
מבלה
לשעון
بن
והציבור
כמותו
הטכנולוגיות
המכב
לאיי
במפתיע
כשהע
stat
בכרמיאל
##раф
invest
ופות
שפו
מתחשק
פריים
צבעוניות
ורצוי
##ese
המבוססים
התכניות
הבחין
קמצ
מחממים
פופקורן
קמרון
מתקיימות
דאגות
האכ
מברשת
אניי
הכסא
המוסרית
##יוגרפיה
בצורות
ton
הזונה
כשמש
سع
##ty
דמג
bob
קבוצתית
לפקח
קריטית
עפה
ושמה
סיבים
9d
למגדל
המענה
תגלה
##לאן
לחברו
העגלה
##קטות
האסטרטג
##מוניות
מהרב
##בלאות
שיעלה
במקרא
מפרקים
##won
ויין
עירוניים
שנעצר
הטוטו
נחשו
##ינית
יכולתם
הפוליסה
הכהנים
בציור
חופים
##פריים
יונס
מריר
מגונה
עוש
האבולוציה
בסוגיית
האחראים
פירסם
##צהיימר
מהסיבה
##ובלנות
##חלנו
מדאיג
לקומ
מבשר
בפריימריז
ידברו
זיהה
היווצרות
תוסיף
מתמקדת
במירוץ
הכיסוי
רעל
גזענים
מסורתיים
וטור
צלילים
אופייני
התנצל
חטף
שחרית
кфар
רווקה
מבלים
מקורבים
כנא
התינוקת
סנהדרין
ולעבוד
התבקש
פורח
פיצויי
תית
והיד
תצה
דיגיטליים
סלארי
##👏🏼
מדרך
ברירת
ויחס
##ican
##עוררות
##קידי
מוזיקת
##גרירות
שגורמת
##עיס
חולמים
תיבול
משתפת
מתנהלים
בסמכות
בכתובת
##טריה
##ura
התנסות
עוגני
באומן
בזכרון
והדרך
sem
האגן
הכירה
המלים
hdpe
##скии
mp
הוויכוח
מקדונלד
וסת
המונה
מועט
שיקבל
ניז
נציגות
retweeted
להצעת
נעלב
אביך
רכים
126
חלופות
התייחסו
הדבש
שאחת
והתחלתי
דנים
סירוב
מאוכזבת
החיסכון
החגיגה
וזר
מסה
אנטוניו
מאשימים
הדרג
john
воз
אמאל
מועדי
אפקטיבית
הדגמים
מופעי
רותחים
חחחחחחחחחחחחחחח
התוספות
באינט
##ayim
שושלת
יבר
הפרסים
הלאומיים
ליקויים
שרץ
שילד
##ילומי
שהבית
שמרון
תעלת
התיעוד
אפגני
המקסימה
המשקפיים
הקסום
ומוליכים
רואות
להפחתת
סלמון
השישית
קורט
טוויט
השריר
והגר
##לוק
דילים
##רכיטקט
להיחשף
המדוברת
האיסלאם
ושח
האמורה
מתפקיד
בהצעת
תפסה
מפרסמת
##°c
תבחר
התעלה
ושול
סורים
לשחות
רקטה
צומ
כשלושה
רחבים
מגדירים
כמיטב
סלעים
care
##שלח
הגיבו
שקור
בקהיר
רשל
היממה
בסוגי
השפל
1937
כלשהם
בשפות
הרחקת
טסי
וחזק
עמלות
##חדת
בדוח
עדיפה
ישחק
המהגרים
ומבין
מועדוני
נמשכה
הזהיר
##מסרו
באוב
מגניבים
קין
בעתירה
בתכלית
ריגול
ופולי
לכתובת
לכתיבת
זלזול
פליט
שמציע
צוותים
שאירע
##אונדים
בתקנות
פרשיות
1929
##מקות
##וסן
בצמוד
אלפיים
השתלטות
פיתחו
הברזיל
הנותן
##קהלה
הועברה
ליתרון
ממכם
חוכ
אלופים
שהובילו
למוצרים
יושבי
##דהמה
pur
בעסקה
ומפרידי
אפים
שועל
אותנטי
מכבדים
##חריו
בביתם
אנצ
##צחוק
##גויות
שאכלתי
ואבוי
ובגדול
##וסקופ
לאומני
some
עברת
הימור
לימו
במשטרת
##ייסדי
היתי
לנב
##ember
טסים
המלאים
כנגדו
והראש
לשקם
##פגיעה
##מייר
לברלין
סוציא
wir
אכלת
שמועה
##ience
קרד
סבו
האבל
סטנדרטים
הבורג
המוצלח
גופתו
המפגשים
טלפונית
##קבוקים
מפחידים
היוונים
לוינסקי
זמ
גרנד
בדים
סופרמן
בינהם
בשכבה
בהכנסות
מסתדרים
קמע
שפרי
##ענת
החשדות
jews
תקרית
##нии
שהצליחו
החזקת
סוגרת
לשירה
ולשים
בקביעות
חודר
לפברט
שחברה
להופעות
##לבון
122
בקוטר
פיצוצים
##נמן
אורגנית
לגבע
##קשרי
הסובבים
ומביא
רבבות
האיראנים
הסבלנות
ולהג
פוליפ
##ליקו
מסריחה
בהתקפה
הוצאו
אלטרנטיבית
השמנת
החשבונות
מוסמכת
נערכת
סוביי
התינוקות
שייח
##und
גנץ
באופק
הימנעות
יתד
המאוחד
בעירום
291
שמני
קלטות
וועב
סטטיסטיקה
##טריים
u05de
חסרונות
מופתעת
והמשפחה
127
##то
##וארות
שבילים
christ
ביידיש
למחלף
לחומר
ובאותה
להבנת
##וצקי
באמסטרדם
##אבקים
ממוצעת
המתאימות
תאכלו
מכב
בעיתונים
שתב
מסופ
שנדמה
רגועים
במיק
הספור
בגטו
חכמות
##ized
מחדר
שמשמעות
המיזוג
אחכ
לפריז
ולכתוב
מגילה
##ena
מאף
קידר
מבחינתם
שיצאתי
סמן
##ano
pack
החופה
##ots
הצמד
חלופה
דיאט
פורה
רייס
לחיפוש
לנוס
חיפש
official
המהלכים
לנקום
##ובני
תרצי
oh
##טיא
לעלי
שבירת
תחליט
הממוצעת
הטיפוס
נטפליקס
הקומיקס
שתים
ללדת
לרעיון
עוצמתי
הצליל
בעמידה
מינרלים
מנחת
רוכש
סאלי
וכוחות
המכילים
##וכס
une
מהמד
##מטכל
לשילוב
פציעות
מוכשרת
שהובילה
חידה
ירוקות
😩😩
אלרג
לווית
rom
ברשויות
ברמאללה
##נפקה
הוור
yehuda
עסקינן
גלויה
תמנע
gmail
##led
##פליקציית
##lin
בפשי
##פורמי
הכישלון
בתכנים
שנכנסו
לאושר
שיבוש
למנ
הדול
הקנאה
החילוץ
שוטפים
לאצ
מתבסס
תפיסות
##fc
לחולל
מושחתת
ביחידות
שעבדו
תקיפות
טרק
בסטנדרטים
##חזקה
דורה
ייוואן
ממצא
הוליווד
aywon
בחומרי
לפרוטוקול
мод
הכרו
שנעשתה
איסט
תרצ
##руз
רינת
קסטרו
למטוס
במושבה
זאבי
##פיתי
מקט
ונפש
##דישות
הפיתרון
ניילון
פיטור
team
בעמדות
סמוי
##фор
автом
במרוץ
ומנסים
כריסט
##cast
bona
הארט
תעקבו
וינה
מחייבים
חיצ
עגב
##כלר
peace
קאפ
שקובע
בעקיפין
המקיף
למילוי
מורד
פצצת
מתלהב
יבקש
הטלויזיה
##irs
הכריזו
##בקיע
הלר
ממן
##בבית
שטוען
רופין
נציגת
לאדמה
מחריד
כרת
לתאונה
כשאנו
לשכ
בכפייה
הצבעתי
לפרוק
בבול
ידיהם
mult
##82
בוץ
אסטרטגיות
ומדינה
בקיום
תצוגת
לפסק
צורים
spec
ימכוערת
##ali
share
חובשים
לעכל
##בועה
השיירה
מתביישת
##ева
המחשוב
יריה
מרשימת
won
קשוח
כיפית
מומחיות
מושא
בפוט
##amp
מותח
סילוק
##כתבי
חדירת
באוקראינה
ולהא
אחזקה
בנצי
הווה
משיג
עינינו
להתאפק
סות
ענית
זירת
שאלון
##פיצים
##iver
חווי
##וקקים
המעורבות
שיוויון
album
מקיר
לפעולות
והולכת
אמבטיות
קטלוניה
שלכאורה
צוה
הופתעתי
ירידות
##كر
ועומד
בפרקליטות
ונפצע
להערכה
במנדלי
חדות
תקע
##rav
בחזה
log
האימ
וארץ
##ומלין
הרסו
מקים
ברחו
לשוויון
הקבע
הרשב
##עלו
الج
mala
כרונית
##קציה
מפקדי
אודיו
נבו
ההתקנה
ומזה
בגילאים
בהוראה
##משכים
##עף
האסטרו
חייים
##קלית
במאמץ
##מקס
הגבינה
לסגל
צעקה
גואל
שתבוא
התותח
ייאוש
non
זמניים
טיט
מושכת
והולכים
יאפשרו
ובעיות
טוי
למיל
הפרקט
הטלפונים
שאיפה
האוזניות
היווה
הדיל
wa
##וסות
לקש
קולגה
אחותך
הדיגיט
וניסה
##יבות
הפוא
mel
הזההה
תשנה
##مل
מסתורי
לדייק
##north
חולמת
והחליט
צאצא
##שאת
השתיים
חזקת
האתיופית
שאמורה
הנקה
אמנותית
תשכחי
ופתח
בערד
1934
בטכנ
הריב
המובה
שעועית
החווה
##וספים
##anot
סיסמאות
התנור
לעברו
ותשובות
##וגרי
לבש
במהד
דוחים
קדומים
ויוצר
ואחריו
תקרה
יהרוג
הפלייאוף
הנוסע
לינוי
התמנה
##לחל
רשמתי
וכיף
שיכורה
tov
שפועל
מההורים
מסתיימת
לאוז
דבור
##דיינו
שגרתית
ירדתי
##מרתי
תרע
מרכזים
שנפגעו
שיפה
##קימה
טיעונים
גרוש
קרקעיים
מראיין
##וריום
שקטים
מוגבלים
חמא
בריאיון
ליקוי
קדישא
##רבן
שמשרד
שברי
תלכו
וספר
צרכנים
##🔫🔫
ופעילויות
הקוט
ימנע
station
טבעיות
ביטקוין
האכילה
באקס
להכנה
ומומלץ
פראייר
גנור
ליכט
ווטסאפ
##קובסקי
years
האדון
הנפגעים
##בהים
הרעות
בתוכנו
שטען
##לקח
למועצת
לרדיו
נחוש
תשובת
אימי
##כזבה
מתגעגעים
ושכ
דניס
וידוע
##געי
הבטחתי
העברתי
שיאים
בשירים
##ליפין
##פקדה
ילין
רשעים
חרדיות
הגשמים
התעמולה
פושעים
החבל
ריבאונדים
רקמות
לתהות
##כובים
לשליטה
נאבק
visit
בבריסל
אינטנסיבי
הקשורה
הפוסטים
וקידום
הופעתו
מוסט
קינוחים
שאמליץ
בעט
##קינים
fm
אלונה
למיני
מסתת
מתוקנת
התנהל
בהנאה
בוקס
ההקשר
וטבע
במור
##טרלי
המושל
יואוווו
לאופי
כישורי
שרגא
וארה
סדיר
מעבודה
אמירת
הפרדת
think
האולטימטיבי
מרבה
מהשני
school
צמרמורת
dev
קצף
הוענק
##מנעו
הועלה
גירסה
בובי
לסביות
הקריטריונים
במקצועות
ומאוחר
איזנקוט
ועיר
שבורה
קרבה
מרגיז
וילך
גנבו
הירדני
מחיקת
הנודע
לתפארת
תלאביב
דופקת
כפפות
ביהודים
##2017
להישגים
התרגשתי
ופחד
לבורא
אוספים
ההשמדה
הפצצה
אורבך
העתידי
לפרטי
מפתיעים
עינב
סוקול
ושרי
מהספר
וטובה
##ible
##inc
וניה
פונקציות
ממונה
אופיו
מעדכן
##טייר
##omi
##אלין
ישבה
##ional
תמרים
היחסי
השלימה
buon
😂😂😂😂😂😂😂
אתיופי
##ולטה
והעובדה
שמחות
run
##נער
גולדמן
##זלת
מזוע
הנפוצים
##מתח
072
##ref
פיסת
לאקס
הסמכה
האלמנטים
ללקק
מסאז
fi
שגל
מחבק
need
הכורדים
מחבב
ממומן
##isc
יתאים
ספקי
##ועדות
הזמינה
ספריית
קאל
עתידה
nuit
##הגים
קליי
##ריהן
הכרזה
##ство
נישוא
הסודות
נהרסו
ריטוויט
ערכית
ומורה
##umb
והבנה
דירקטוריון
שרוף
מתעניינים
ובאותו
ששות
בחניון
שתגיד
מתון
ידאג
לסקס
##иб
ולישון
כניסות
##וליות
לסמ
##רכזו
143
מסקרן
דיירים
##דיאו
שעמום
דעאש
disc
nbsp
התקד
חף
היוו
הפתח
הבקשות
בנסיון
שיראו
ומשא
הקשבה
##טיסטים
##ירוס
תקציבי
עמרם
##רמן
שיתנו
וויסקי
הבריאותי
##🙌🏼
##פוסים
המנהרה
חצוף
בפרויקטים
moshe
מתחברת
ובעניין
בבנייה
טווי
##קלו
שאנשי
##ware
בתיעוד
עניינו
לקבור
ושלל
אבטיח
מוסכם
לשמירת
יקנה
העוברים
תשאר
##אליס
##שמיים
##חקתי
בעצמנו
##ואיציה
אינטימי
שיימינג
לתפקידו
המחתרת
האבי
שגברים
באנרגיה
החלטתם
לעיתונאים
חושים
אינדיק
מתוכננת
ומהירות
שבאופן
במחלת
##berg
##point
הקרה
אנדרו
הסעודי
כיפי
הזכרת
קריר
מרהיבה
בחקר
לקריאת
##חסנים
זרעים
האלבומים
לסרטים
ריכז
##ינרת
הטבעיים
וצוע
כשלון
nacht
spe
באפגניסטן
##nei
יהושוע
בוועידת
לחולי
וארבעה
גרוניס
מחויבת
שלדון
לבלי
iran
הרמן
סולידריות
השקפת
צונ
זכויותיהם
resp
ההנדסה
השכבות
בדירת
הספיקה
לנגב
הנקרה
שנפר
ההתמחות
##ניקו
הגבלות
עדת
##ומתו
האחרת
גייז
התריס
אינפורמציה
שנכנסים
כועסים
משאלות
ut
מתפתחת
שבנות
שעיקר
שמחכה
רנה
אלד
וזול
משחררת
ליציאה
מאוי
הסמול
מהחברות
חיסונים
בהצבעה
אפקטים
הדומינ
המורכבות
הארוע
ארגזי
##אקינג
פלאים
ואול
עגל
ריבוע
קופצים
ball
##טבר
מאתיים
נהגה
למזל
245
חופרים
##שתן
הבודדים
מירוץ
cour
##נוש
מהעם
##בכת
הנוצרי
המגד
ומתא
זיג
תחתיו
האנס
הצידה
כתובים
blog
אישתו
הבינתחומי
בראשל
##ממממ
טוטו
סעיד
שלילת
שנראים
מאירוע
לחוקק
תותחים
ומקווה
##לוס
ומטר
שיצרו
לסניף
שיקגו
קומץ
לאיד
hem
תפעל
ואותו
הסבירו
תזו
תגוב
חגורות
yo
##ודדות
##נומית
ויכולים
בכנרת
מעריצה
במלים
מתאהב
לארוחה
מיגון
##arl
מתקרבים
ייבוא
##שיחא
התלהבות
מנחש
##שלה
שמעלה
קיבה
לאליפות
וקבל
אדה
עידית
בפרטיות
שפרצה
שרט
##יצטדיון
cool
תהיתי
דבריה
הסימן
ומשחקים
הנהגה
מחשבון
ועליה
##מבה
להעמיק
מקי
טענתי
##ips
עובדתית
במפה
בחקירת
обор
שמנהל
##יחסה
קנסות
לחומ
מפוח
##יהה
דרגה
name
##וצפה
לצטט
מאנית
הותקף
ורכי
באסיה
שקראו
##self
אישורים
##בולת
העברות
וחומרי
בעיניהם
לחשוד
למושב
מערבה
מבוקר
עייפים
נולדת
##נצה
תקנו
להצלחת
הרצף
prom
##דרשו
מניו
מנין
גילם
##ואד
##ונל
כמנכ
בתחושה
יעצור
מסוגלות
שמיד
ונחשב
יספיק
התנגדו
cas
מפתה
שהבעיה
תופים
עופרת
סאב
ניץ
לחימום
המעבדה
התובענה
והשר
מצלמים
מוחק
##מונו
ידידה
fashion
##קוביץ
שכחה
מקרן
מביתו
נהפוך
##פגין
הפיג
מתהליך
ממצפה
האיל
אביבים
ידיה
1930
##נול
מטעה
##וסקוס
ולשאול
##שעה
הרלב
התקציבים
מוקפת
בחלומות
נשמעה
הנדרשות
טלה
הקיס
got
يا
התשמ
מונדיאל
יבת
##צבות
לתרגל
שכוללת
להניע
שנבנו
לטענה
הדוגמה
השמונה
מבוקשים
בביטוי
עגלה
שבדק
בקונס
במשמעות
לנושאים
הייחודיים
מבוכה
כשאומרים
using
פרת
אותךך
אהלן
בדרגה
ניסית
גולף
מארז
לובי
בוילה
פגי
מאהל
מתיש
קוטג
לקופ
מארגן
בחיס
הוכחת
תעד
ורדה
רצופות
אירוויזיון
הדמיה
ביבר
בהודעות
לתנאים
132
הזקנים
בדירות
בשקל
לבירור
לקבר
במעשים
תרומתו
דמא
בנויים
650
##מעויות
יברך
##וציות
הפנוי
##פקא
חוגי
##ei
למקרר
סיט
media
ברזים
דוחף
בהעברת
מצדו
##يدة
##iot
ביגוד
כוסברה
משמעויות
##וניסיה
ידינו
מהחי
##וקטור
שאבי
סטא
התופעות
##פיסות
חלופית
ומהי
לחללי
ויצר
הנפילה
אויף
מקובלים
שטיי
התנפ
##ivot
##ובנים
במקומם
עיניי
נקבעה
בחמישה
##леи
הציפורים
מוגבר
מאחוריה
##שואים
gute
sel
דאת
##ят
המאבטח
tu
ומבוגרים
והצלחה
הגדיר
המייסדים
ביקרתי
##סימום
sams
##קוק
התגורר
תלויות
התקרית
לנתבעת
הקצרה
והבנתי
הלכתית
##וטרי
אמורות
ולדעתי
230
אשכנז
note
גנטי
פמי
מאחריות
המנהיגות
משלוחי
מהחש
השומרים
כשמו
למחלה
amaz
בפיצוץ
1917
לטיח
עמוסה
גינוי
##בעל
ויוע
ונעלם
קלף
סחורות
טרוריסט
בשבתות
הום
radio
מופעל
ויעקב
ניאו
ואע
קדמי
החקלאים
מולם
שהמצ
המוסלמית
הראויה
שתו
פורצת
הלאומיות
פתחי
התפרצות
וירושלים
הנכם
##bc
לגו
פורצלן
ספריה
עלובה
יושר
##81
בתת
מתבססת
ולצפות
ומטה
התעקש
ששמים
##שהוא
##יותו
##וריז
##נוניים
בהליכי
לטפח
בפרופיל
##גדה
במשחה
תכופות
בריבית
חפצי
עוזיאל
##ושוויץ
##רררררררר
##תא
שמבקש
ציצי
באושר
תחול
ממרח
אשליה
המצוה
אתיקה
הנרות
ברוס
במהלכה
lear
פוליטיק
##ובאוויטש
העמוקה
הסטרי
מקולק
בדרגות
לבעוט
מסרטן
ריד
במחסום
הגננת
אגרוף
התלונה
התקשורתי
##מנסיה
כנדרש
במרפאה
נוטר
אווירת
שמלווה
וביר
bor
הרבעון
היעילות
בשיעורי
במגמת
בוסטון
מתארים
השורש
חגגו
חובש
##יסטו
מקהלת
ולקח
שנהג
פשעים
##שירות
##חוח
חתר
ואיתו
##לבות
שנגר
להזמנת
נרנדרה
israelnorth
ביונסה
פירס
חצילים
bal
##וויים
##ران
המנוי
ולהיפ
למרגלות
וטו
יקנעם
אייג
המיר
בתביעת
נסענו
שהגענו
עצובים
##יטי
##זהרו
נאכל
בידם
איקאה
##aa
##גרא
בהמון
באייר
הסלולרי
שדרה
הפצה
בקליפ
העצרת
העומר
אלפר
ומתאים
מארחים
המצוין
בקצ
מובהקת
קבור
שהשתתפו
לזכותו
החוויות
הדח
רוכבים
לנור
הטיעונים
תחס
הרהיטים
##מקי
ממקומות
הרחצה
שפורסמה
dream
בהתבסס
קונסט
להיווצר
שאושר
ההיל
האדומה
בעובי
שעולים
מהאופ
שהגוף
האמהות
ייצג
##זבוז
והחברים
בכוכב
בזירת
הקנייה
שמולי
ברנ
הרוצחים
באפשר
לגוון
במית
השבר
broad
##קורד
##סיביות
##יקאי
רקא
##ונין
למטופל
##שואין
##ды
מרמז
124
מאובזר
מכיתה
##akhi
באולימפיאדת
מפורסמת
תהילה
באיירן
בשליטת
##ואבת
קונקר
ב6
pop
לבב
איחור
נחושה
לבם
##ירותיו
למועצה
ועובד
ניתנות
האחסון
מבוגרת
##סתר
עשב
להסכמה
עודפים
לעיון
היוקרה
מגרשים
יזכור
הכחיש
שנוי
והוציא
plan
מתחתנת
##צצ
##שתך
שעזב
להעניש
שירן
כורס
שדיו
מעגלי
ובראן
##זיקין
##يع
לקופת
דיפון
ze
##פעה
בזכותו
раз
##uts
הלמ
בלבו
wish
##ster
ביטחונית
הברך
הטקסטים
להפקת
##ico
גילינו
משמעותה
##איתי
shortlink
שהחי
שתכנ
זכויותיו
##פיקות
הארמון
המפורטים
נסבלת
##כלוך
צמודים
מזומנים
shortlinknews
מושיק
ב8
מקולקל
דאם
הדבק
רכיבי
לאבחן
tak
שהמט
הילארי
הסתבר
##ניך
##ועת
הקפידו
בערי
לגרוע
##שובי
##ton
##באר
שקיעה
вод
בשעתו
טורס
פיננסים
הצביעה
הסכמתי
##ova
לאברהם
הלבנת
בתערוכת
הבקר
לזכ
ומאחר
פנויה
לאולפן
##pm
##ינגוף
##ומנו
malakhi
##נלין
##iers
פתחים
האמורים
התנועות
##באות
שגרת
התשיעי
המרצים
feat
באותיות
מרגי
והרוח
טקסטיל
מעולות
שערכה
פאת
מהממוצע
ומחוצה
התחושות
בריצה
החוזר
בהופעות
אודם
יומו
סירה
320
##וקיו
##aly
ורמוט
149
מבשלים
דום
המולדת
קרת
הידידות
זיוף
##מזה
משטרתי
מדמיינת
ובנט
בלבן
מנוה
לפוך
להזמנות
שהאיש
שוחררו
שכנה
ברחבת
הקדום
ברדה
##מותי
##חורף
סידן
##נחו
המכוער
נגיעות
נבקר
אינסוף
ורציתי
##ומאה
הפיוס
עצורים
הדוקטורט
rav
arab
היפר
שיראה
ומשמש
בירוש
הורית
##azalt
פחי
##עדון
קריקטורה
הישנות
##מדם
מהההה
תעשיה
בחגים
מזרונים
הבחינות
מפלגתו
הטריד
בציוד
اي
הבריחה
оборуд
בטמפרטורות
סטלה
מהדה
girl
התחר
מקלות
לסיר
נחשים
ומוצרי
לנייד
ופק
נופר
מגביר
##דקן
הפריצה
מדליקים
בקערה
אינטלק
הדרוזים
שאוכלים
הדחה
סטייק
##аты
מקשיבים
המחברת
state
הפלשתינים
ביצועי
בתולה
נחכה
ולאו
לתיאטרון
מעמדם
החשב
samsung
##ופון
לעדות
תפירה
מחלוקות
מהסרטים
היזמים
שירצה
##תייחסים
אמרתם
##ונזיה
בסיסיות
בהחלטת
מריו
טלקום
שעיר
יבשות
מתחתנים
אינסופי
gabon
רכס
השלמות
השפע
העיס
כוז
בתביעות
בגנים
זריז
פרחה
##רוקת
ניסנקורן
לדיור
חריגות
שמסביב
בתמיכה
עיוות
ושיר
ec
כשלוש
##azaltov
שיפר
עבדת
פסיכולוגים
הביטול
השקה
בסיטואציה
הטורקים
מזכרת
רושמת
ננו
מהקור
בחקיקה
סים
למבקרים
ניקי
הבגד
זרימה
כילד
##לנדו
ויתן
תיפול
הגבעות
##שרונות
ענישה
המותגים
near
הרלוונטיות
אוסר
קנב
לשורות
ומאות
ולאורך
פטריק
עוכ
שטרות
יוגש
מולה
##זימה
ולחיות
וואה
לנחם
וריח
##👍👍
מתפל
##מחור
הארנונה
ולהוסיף
ונהיה
סוחרים
הפריימריז
נתקלת
ווק
##ios
מסטיק
ספרתי
תמידי
הסתיימו
המודעה
הצפ
##וציאה
הגופה
ושיתוף
מיעוטים
כיל
##דיאנים
שהאנשים
התקרה
השערות
לאחים
פיברוטים
מיליארדי
ההבטחה
תזונתיים
##פרטואר
פותר
הגלים
לובשים
##зи
משברים
מטכ
הטורניר
ויכולות
גלריות
ספייס
инфор
בפיקוח
##😍👌
bnei
בתקיפה
ביכולות
כפרות
מתיישב
שעשועים
1918
תעזוב
יוצרות
שביקשו
טונות
למעורבות
יסייע
מנשק
מפספס
proc
צבועה
זייד
ולהיש
##😪😪
וויליאמס
ובניגוד
פיסט
##כונו
##קבץ
המכבי
בבלגיה
##פרקליטות
פונדק
שהונ
ושואל
מסילת
ביאור
נבלה
ולסייע
ולקום
להקנות
התחייב
פוליגרף
לביטוי
בהלכות
##דרמן
מתהפך
בבגדים
קלילה
##צבו
##אלף
ממוקמים
ספונטני
מחקתי
יוזר
ולהכיר
שהולכת
הפן
תרמה
said
הוצגה
פגמים
אתזה
המסקנות
##inal
אומגה
שחברת
רמטכ
המאמינים
miss
קלק
יועצי
קסט
לפורים
מבודד
hair
המושגים
יסמין
העדיף
משוחרר
שנחשף
הציורים
טענותיו
לחולים
##zz
##הר
משולם
כשבא
מתאפ
הפסנתר
בנחת
מתעלמת
הגרעיני
בפריסה
😭😭
##צופים
בננות
שעלולים
דדון
הרגישה
בהתרגשות
גבעה
טיפוסי
בסיכום
למצוץ
קבצי
מרקט
האכזבה
lach
לתיע
##רחיב
תושביה
לאללה
יגה
יילך
וביחד
##קשרו
עתידיים
443
מטרו
שיריו
##דיפים
הבושם
ומצב
שוויץ
לנסיעתך
סכסוכים
צנועה
ליטא
שימוע
mc
דאל
##ילנדי
חסכון
לתקלות
ואיב
למצבו
ספינה
הגבורה
##ופתי
אוריאל
קונספירציה
ב9
שבבית
יווני
בהפג
מכבדת
syn
דמה
במסחר
שמונים
בחומרה
נוקיה
התרנג
בוחנת
במלואה
##ди
היותם
##ופך
לבטוח
ושלח
ופגיעה
lev
##ke
התות
משוער
מומלצות
הקטעים
איבדת
הקמח
ששכחתי
eb
מעשיות
נואש
והנע
ובור
הדפים
ושמירה
סקרי
ומשפחה
ייסון
הנחשב
שציל
משמעותו
gurion
עגנון
לדיווח
משיגים
הנהדר
חשבוניות
##ique
##מונאי
למוזיאון
האשם
אצלינו
eye
##זיקאי
הציפורניים
לניקוז
האסלאמי
בדיר
שנהרגו
בחמאס
##ונאית
להיל
שעבוד
גרנט
לעל
זינוק
רפאים
элект
##גיים
מימ
מטרתה
מבא
ממהר
שניר
##רכך
רעידות
##גמי
##кая
יוזמות
קלטת
לפליטים
הרדיק
שתקף
להרחבת
האקט
הקיד
הלטינית
והו
##מימה
שנמאס
תפספסו
##רסו
##והב
התאמות
עיבוי
שקשורים
נפוליאון
הנמ
אזעקות
##שיאן
##חידוד
מקבילים
הברק
חליפות
הפסידו
אפסים
גרף
עגלות
ומפר
נסלח
מהמשפחה
השגחה
במארס
##פקידה
crazy
טבלת
המדהימים
להציץ
ואחיו
مو
מורות
שניאור
לאתרי
התרבותית
מרתפים
מיוצר
שלקחו
ועדין
ult
133
פראג
aj
##לידים
הסוכות
רויטל
אמנותי
המתחרה
אקוסטי
управление
##רטורים
בלוב
חרום
nos
אווירית
בכולם
מזוין
לחקירת
טובבבבב
מאלי
מותנה
אחזקת
##בטאות
כתבנו
יפנה
גלאי
חסה
לראיין
חדל
וחופש
ונכ
לנתבע
תחזיר
find
##גונים
##טרן
הסבתא
ממדי
##ives
ושטיחים
##מולת
מהשורה
שסוף
##יתמר
מהגן
כמאה
צמיגים
los
ובחר
href
מהשעה
הפיטורים
לעברי
והתחיל
dead
שהייה
האלק
יקחו
חולת
מתיחות
מציב
פוסל
##лен
והוצ
שליחים
ועמית
מדליית
בלעדיה
tz
הטייסים
השבועית
mad
פפ
דינמי
קירשנבאום
וויז
ומצאתי
לזירה
информаци
ששוד
שחררו
התייעצות
##אוג
##ייטרינג
their
הספקים
##ways
רעילים
השליט
אפיה
כמקום
##חתנו
##זנים
פחדן
במנהל
קרקס
אבוטבול
colle
במרוצת
##רופילן
המתקן
כדלק
מחילה
מכרו
החישוב
החתיך
בצר
באינס
cre
גייט
##טחו
הסופרת
הרומאים
ומקצועית
וצד
##ויג
שותקים
שבשביל
מהגר
הוותיקה
חצאית
תרגילי
שהוצגו
תכתוב
שוכבת
ביניכם
טומי
נדפק
התארגנות
ליקויי
חדשניים
רגול
left
פאה
מועדים
שכיר
אכלנו
הממוקמת
הנפוצות
עתידית
##יתך
אירית
נדבק
מיקוד
המתוכ
##cho
##זקו
בהתא
נישט
השייך
משלך
הבקרה
ארנ
חופשיות
##кет
משעל
רפובליק
להתקנה
ההלבשה
##iam
החילונית
בדיו
העשירי
רצחו
בהיותה
זולת
מהותיים
##יבק
לרווח
להצטייד
דוקומ
photos
שבדרום
ל2
יעבדו
לדקה
הפרמטרים
באבי
נשלחה
ציצ
מתשלום
lov
חצה
##צתה
הפרא
מוהר
ניא
מתיחה
למופת
בנפשו
שאמורים
מנפ
נדרשו
הזיהום
ולהציג
בדעתו
##בירת
##כוס
במנוע
שעמדה
לסגת
שילוח
##ник
צרכיו
האלף
בגללו
להיעלם
אטרקטיביים
בפסיכולוגיה
##יפט
אוראל
מקרקע
ענפים
##sm
מזמור
בניסוי
יאן
השיפוץ
ביטוחי
מאב
##ויז
פרנקו
בחקלאות
שיושבים
##מבורג
##уб
##олог
נורות
דהא
הפלס
לחקיקה
התהילה
כמקור
לזע
בעייה
пар
##וכבת
צלמי
החיפושים
שמשתמש
לנטרל
הריקוד
הרגול
הרסת
dance
הבאר
חמסה
שפוגע
##זייה
לפענח
קמפיינים
מרזב
חיכה
##😊😊
עדינים
##חיין
לתוכו
וחוס
הקוסם
המחמד
למסחר
שליליים
בסיד
מחזות
סרחאן
##וקאין
ויצאו
נקרע
טאקט
מתעד
ושכל
ייסד
שהלכו
שנשמע
ig
משלבים
אמריקנית
הרכיבים
מפבר
סתמו
ושבע
פחחח
מחזקים
השמועה
שגיאה
##ניבה
אייטם
קהיל
דילן
הסנג
לסגנון
החדשנות
חמישית
وا
##ואליים
dc
העניקה
##ופתיה
לוסי
העצמות
##חקק
תכננו
##ייפים
למשרדי
משח
##בורכת
מועמדת
האמנה
וזף
##לקסיה
בהגדרה
טמטום
תקבלי
דלית
באוה
הודיה
מאוס
הסדרי
##לבטות
השווקים
זכאות
##ענים
האפרי
יסכים
נוגה
כמפקד
שיתף
##טרור
ממכבי
וחינוך
המסלולים
цент
שלף
שיכולתי
הכספיים
דיברת
מדין
תחפושות
שסתם
האריות
ריכ
ופרופילים
עליונות
הקניין
הניק
512
הבעייה
ינש
אגן
לפסטיבל
וייצמן
פליי
##מלוגים
##нич
באנשי
שבאר
המיתולוגי
##ושעים
##נסטון
והגנים
כלליות
קוסט
##att
חלוק
rotter
##בז
מצייר
והצוות
בהבנה
ההזוי
להרביץ
שהספר
הגלובלי
שזר
החידושים
למעשים
dog
והרא
שיני
##טאון
להתחייב
מתחרט
לתחושת
התביעות
שמתאימה
מזוודה
בעבודתו
vir
חליפה
come
##וטרו
הפנימיות
card
גינו
הפיך
פסלים
ההמנון
נרקיס
המיליאר
שיבא
שלישיים
וסל
אכס
מכיס
ציפורי
סביבי
sex
בחטיבת
בורחים
קוצים
הקרינה
מדוייקת
##ոս
מפצע
מכמות
המושבות
קבוצתו
דולב
##ינא
ייערך
לשמע
לשכונה
##եք
##ete
בהסכמת
ליעקב
איפוא
##מלין
מקסימלית
##😻😻😻😻
מיחזור
דרשות
במגמה
שהתפרסם
הניסיונות
zikh
ורבות
האוניברסיטאות
במישרין
קרלי
בגידול
האפשריים
##יאר
##енты
ואמין
בקביעת
להתגרש
ההכרח
תאריכים
במונית
אנטישמים
המכסה
העיון
##קבים
##ライ
בנימינה
ולהחזיר
פעילותם
מאדים
בשרשרת
##רגלו
פסיכו
ניתוחי
הפורט
צלקות
והרע
מאפס
zikhron
ועובדים
מטרידה
דאמר
לופט
בהומור
142
שיטתי
שותקת
ששולחים
הסובייטי
שטיין
וכאב
עננים
##מחי
צרכני
שבעלי
טריילר
הנתי
תספורת
הקרוי
צפר
בנתונים
שהתר
כצפוי
ին
והבית
לרישום
հե
##יומם
האוסט
הפיצו
136
תרופתי
בממשל
him
##ליוטינה
##🇮🇱🇮🇱
טפסים
שחף
eas
##kin
הקרדיט
##😰😰
הכבלים
לתקופות
אברם
וישלח
שמשה
ופני
נזיקין
ինձ
##lem
wifi
խոս
הקפטן
הטווח
מניה
##בויות
խոսեք
ברט
כאח
מצויד
משכן
וחדר
בעיסוק
##בועות
רנו
##ליפט
מרוכ
קרמבו
הליי
להשתפר
להינשא
בדיונים
קוסם
המתיישבים
בהפקה
##יבסקי
כחל
ושינוי
כוסאמא
באמבטיה
הנבואה
##וארה
ובטוחה
אידיאולוגיה
ther
ולמילוי
אינטרקום
benj
באזהרה
התרת
בחנוכה
הצחיק
ביושר
האקרים
יימשך
מהכיתה
קנא
ההשע
בראי
תגלית
иг
ברובה
דיקור
העדפה
היבשת
ומדבר
פיגור
המחזיק
סוויטות
##ובינ
להגדרה
מלראות
##льт
אלגנטי
שמתרח
did
organ
##ווייץ
בגיוס
משוריינת
##וחנים
במוסף
u05dc
kind
זיעה
דאון
סגרה
пров
##כותו
הקלדת
ב200
##area
טבעו
צים
העידן
תופיע
ופרט
הנגישות
לניסיון
במלאי
סידר
לבנין
התחתנו
baby
האירוניה
המזר
מתחזק
ומשחק
ולספר
השגרה
מעם
##אנט
ועיין
ברווז
פוסטר
בניצ
לתחבורה
אלוק
בפורט
וארגון
וטכנולוגיה
ספוג
בגדלים
בתופעה
ידית
##מלון
##דורף
##דורוב
ההיבטים
רובו
##מנטרית
רביבו
מאתגרת
המחוזית
לקואליציה
ניימאר
##וואי
hal
טעמו
תרגם
שהמד
מצריים
היועצים
המצליח
האמיתיות
בנדל
##דינים
ברביעי
באריחי
שמתרחש
והוח
shop
acre
לעידן
משותפות
סנדרס
##חרדים
##אקים
במיטב
והבן
התוקף
אולימפ
לשיקול
לדיכאון
נפרדו
could
som
##اي
המתמטיקה
להזיק
ההגדרות
שמכונה
נסעה
ינצ
שדורש
terrorist
נוחי
טרחה
שילת
ההיתר
לתקציב
מכלום
במעון
##מועצה
אצילי
בשלט
הצטל
בריו
התערב
בשרים
تل
##וניינים
##דלפיה
סרנה
טוויסט
מדפסת
הרגישות
לשוטרים
##כסך
ימיני
וקסמן
מקוונת
וחיפ
הפניות
לחידוש
##ומין
ann
במספרים
אמני
לגוגל
סיווג
טפ
לקוחה
להפנים
שהצלחתי
המפיק
נינט
חופשות
במזג
service
dy
סקירת
חקלאיים
הסיסמה
אחיך
פתחנו
קיין
וסדנאות
וולט
מגעילים
ליועמ
האספקה
וקונסטרוקציה
כתחליף
מהבן
והחס
טד
צומח
להטריד
סיפורם
למנהיג
יפול
##פתיעה
נוהרים
fel
לינקים
הדתיות
אורנים
מתלבטת
מחקרי
ар
במידות
במצוות
באך
מקוד
ביקורתית
caes
קראי
בעקבותיו
מצומצמת
איראני
שמערכת
##תיקון
נהרגה
שמסננים
וחמישה
ונקי
##ליגה
מסננת
##ארתי
##רצאות
ויתרתי
##سل
טואלט
ערא
קולטים
דריי
##ider
לחלשים
שביניהם
##вер
ואיס
##אף
מונים
הבריות
לרצון
לטורקיה
בשת
משרדנו
מקדמים
##さい
רחלי
וקוראים
תורתו
חיונית
במרמה
אימפריה
מיסטר
שניהל
##פליה
מהכפר
ל3
נהנת
למצבים
גנבים
1932
##ונוב
##טבחים
קונצרט
רוקד
בסוכה
שכולה
ברגותי
health
##מצית
בעשורים
לביק
והתפתחות
ושימש
##оль
במסמכים
דייוויד
##טענים
метал
לולא
העתידיים
##rit
להתארח
מיצוי
שנבחרו
הפסקות
אדיוט
התפוצות
index
היבוא
נכתבה
##מחק
##גדלו
בחזקת
לורן
дет
הסודי
בתנו
להתנהלות
הכפול
##קשבה
תוקפת
כשחקן
ניצבת
##פורה
לגיר
##👌🏻
ולהנות
שהעניק
במדים
ממבט
לייף
בפעילויות
התקין
תחביב
הויכוח
lcd
בתרופות
הואשם
שיכון
הזן
ממז
העיריה
##אניקה
##ок
הרדמה
##azaltovfromisrael
מורגש
הכרנו
ובחלק
##מדיקים
מבעל
זיד
##ony
תלח
##כוניים
להיחשב
בפיקוד
##ריקות
##טספ
ליחסי
חורב
לכחלון
התנגשות
יוונית
לחופה
כהנים
דווחה
##ערב
מהדורות
נסגרו
מעצמם
התנהגותו
mix
מחבלת
הקמע
הלוויה
באיזשהו
השתחרר
האוסף
לתפילה
בחנו
לינד
##פינו
יריד
בוזי
ההרי
וניקיון
התבטאויות
הגרא
סיסט
שכבתי
לירח
htc
אבדה
השמדת
וקיר
מתחנת
##בטן
התפטרות
מאבטחים
שתקבל
לרמוז
שפותח
ריטוויטים
המתה
כוכבא
נגוע
וצמנט
twitter
##wh
מדעים
לכתיבה
##טריסט
##ki
הרשעה
סובייק
ההתאמה
הדיאטה
סטל
הרגה
בלידה
##גישו
מסחריות
הקפאת
חוטף
לנער
התחתונים
זועמים
חידון
המסריח
אספלט
##פליי
שצור
##лю
מקשיבה
לדייט
משכר
ממט
por
נודרת
שבטים
חומץ
משתתפי
לרנר
המלאכים
האונס
בידיהם
ומיוחדת
הביטח
חגג
פוקימון
במציאת
קסטי
במזון
holiday
ורגע
שגבר
תמצאי
##فت
בקשיים
יצרנים
lou
##וקרה
הצלת
תורי
שרמוטות
עוררה
המודיע
בצוק
test
צירי
הסנאט
בלוטת
יראת
##ols
אצטדיון
אמבולנס
ובאיזה
##קיני
##נויה
פומבי
בעוטף
ליבך
##נסיות
לשרות
טרכ
לאומנות
לנפגעי
איומה
3d
##וצל
דיירי
נורב
ושית
##атель
ליאיר
בהכר
לשופט
הומופ
##בונן
הדיגיטלית
והדרכה
הייחודיות
שרתי
הנאמנים
ונתנו
האפקט
מסיקה
המוצגים
##טרקציה
החמישה
מפקדים
המחר
##velop
מלגות
השמיעה
##يهود
##ציים
##חשפו
וצמנטבורד
ניקוד
מהקבוצה
נושמת
רייט
אריאלי
מתבגר
##ael
הצבאיים
חבית
138
שמהם
wed
מזוה
ושזה
bur
tar
שהעם
הפרשות
רוגע
בשינויים
השרשור
קונבנציונ
פרוסות
תובנה
ייפתח
ומגע
אפסיק
אנטיביוטיקה
המופר
אימוני
הקיו
מקבילה
mobile
מעשור
רקמה
בחבר
##וזיל
תודעת
הקנס
להיפתח
##מיהה
בבחירה
מבוצע
אגמון
ערבה
להסית
cb
##חנות
עטיפה
באישה
לפרנס
פיקניק
תיל
המצעד
ביבשת
##zer
##יוג
גורף
למודיעין
לקחים
הדופן
##יקרון
והמג
פקק
משוכללות
##lam
שיסת
הטניס
והחבר
הגיטרה
גליון
שמעלים
ויקח
שאיננה
##אנג
הקומה
לתור
ההזמנות
מגשי
הטבה
##ient
שאמנם
לעמק
מוריה
ההפיכה
##שלמה
וחסרת
ששואלים
שנתת
##iger
ובמהירות
דחייה
לישיבת
הזירה
##ники
נוטלה
כשמגיע
ce
##פפפפ
מכריזה
שחיל
אירופי
##חישים
אהל
שתראו
תאמת
amo
ההדפסה
מפיקים
פחמן
היישום
סבלה
##מלצת
וקיבלתי
אקר
ספרא
print
התבס
לחלות
קעקועים
שהציג
##ושו
הכלכל
פרימיום
ואחריות
עלמא
כלבי
באומץ
התורן
בסכין
שנתנה
קונד
##フライ
רוזנבלום
##לזול
המזוהה
הארכיון
להזדיין
חיראן
ומערבבים
השה
אהבתו
למסורת
ההסדרים
##works
הלוא
ועצוב
בגלות
##ана
קרלוס
מדפים
תקרת
##ras
הכתף
##מאת
מפיל
בוואלה
סבן
הפרשנים
חמצון
benjamin
מגנטי
פיקסל
מהומה
בהצטיינות
האוזניים
וכואב
##טיט
מתפשרים
##😋😋
שנותנת
לאזורים
מתאבד
מיתוס
בדואים
ב11
הרייטינג
אובייקט
קדומות
תענו
התיע
משוררים
הריסה
דוס
קולג
ושוא
מוו
בהיק
פערי
לבלוע
מהגוף
שמהווה
האשכנזי
התפקוד
##איץ
במסווה
הפורים
комп
עקיף
ישאל
הבכי
שמפניה
נבין
קביעה
##זורי
##ביבתי
המהפך
בינוניים
##עיר
travel
חסימה
עמידים
פיזיקה
לשונית
##אסטר
idf
ומתחילים
במלחמות
לשיח
ומכבי
גלובלי
בעלמא
לכותל
התלונות
וחומ
##פעולי
ממשיכות
הגיור
מפורשות
המתמחים
מזויף
##פירת
המעביד
מקדיש
##פסדים
ומוז
קוצר
לביתה
##דיינים
התנו
מרובע
רצונם
טיפל
והשמאל
בבקשת
הפייק
הדיקט
לאובמה
המרשים
אביהם
מתעצבן
ושלווה
##מריא
וכותב
מלכא
##גשנו
ובצורה
חשין
eu
האדירה
בישביל
מותרת
gps
הבניינים
הלחות
ההשפעות
שובה
שנחת
od
הטירוף
ימותו
##هيون
ובישראל
מתרגלים
התקליט
הלקח
הנאשמת
כשרון
שהחלו
הפסגה
חיפשו
למקם
להעדיף
##ינור
מאפייני
##קטי
well
בהנהלת
בשיעורים
בשד
##קבלי
לעצם
הרכיבה
כבסיס
הנוסחה
תשר
ההתלהבות
##ראקציה
שהצד
משקי
##קרנות
ליייי
ובייחוד
לבלום
##געה
להזהיר
קריס
למאור
##mm
המכנסיים
באחר
two
להתפנות
בפאב
למתחילים
##lim
##מויו
1919
בלוגים
קיימו
המיטב
שכבש
מישו
סמויה
וידידות
הארכיא
המוניות
לאורח
העמיד
הפדרלי
בהכרה
המטפלת
לליגת
במשל
##רחבת
בדיבור
צירים
##יונם
size
##ריפים
למחלקת
כנק
154
##etz
שמעל
הלבשה
סיפוח
##נבורג
מערכה
##זוף
שלומך
מעונן
טיילת
ועמו
קוסמטיק
artic
##נעו
החמוד
ולאי
שניסיתי
אברג
##הת
למאגר
משפחתיות
מדם
השטר
עצירות
הבאנו
הקדנציה
שאוהבת
עלייתו
אמריקנים
##ela
גברית
חשבונית
לקא
מנדט
אכזבות
van
זזה
כיאלו
ועוז
ששומר
חוסמים
##זמורת
##יונה
מצליחות
וחומרים
##רטט
ההולך
האקסית
נמנעים
american
ישרה
##ופטת
מצחיקות
##פתעות
ולחפש
##בילות
הצהרים
שלצ
יומם
משואה
יתיר
תקשורתית
airport
ידיעתי
חרדות
טעי
##uge
##عد
אגורות
נותני
##סלמה
ליטל
##👏🏻
שלוחת
##ney
שחוזרים
##רגנו
אנושות
צמא
##כחה
ממב
רפורמת
##56
##סקיר
rep
טבלה
נידון
הפיזית
ההפרש
מיקומו
עלמה
נוסחה
שמשחקים
מנגיסטו
כדלקמן
האפור
##מיתי
פירון
מפסידה
כדורגלן
במונח
המפואר
שמצאו
next
הטמ
שנוגע
להתעניין
והביטחון
##בחירה
map
ייחס
##וזאור
חייכם
##lish
המוציא
המעניין
ללוחות
מתלבטים
ומצוות
המשמשת
מצוקת
שוי
330
יאר
עוי
לתחז
באבו
להצעה
##לחמים
##בשיל
ולהשאיר
והספורט
san
פרנ
עזבתי
שרובם
מעפן
##חלץ
בקהילות
הדירקטוריון
עינויים
אושוויץ
ברוש
##יימינג
מרובות
וניתוח
האבק
ויוצאים
zo
##וגנת
בולשיט
מהדרך
עכשווית
במכירת
למרחק
חילוניים
##קרס
בשרות
פרטני
##צלאל
##בצעו
הנובע
מבשרת
נזכרים
הפכת
בתנועות
שכיחות
##בריות
שעוסקים
פרימי
וטוען
קשיש
дом
##ואגים
המלאי
הפסיכולוגיה
##וקקת
שמפו
פיקסלים
מלפפון
##נזיום
##יעם
יחזיק
לחייהם
cia
אמינים
באלו
למזון
מדוכ
לנופש
נובעים
קבלות
רצונות
להפקיד
יצביעו
באלג
##עתר
הנחתי
ומהם
רנטגן
##רכם
מספיקים
התלת
ומקומות
והקשר
develop
מחרוזת
מספקות
יניה
מוזיאונים
##פונה
חיבורים
##באת
שצפוי
##מיקס
מתפשרת
וסוף
רובוטים
שמיכה
מתנגדי
ותיקה
##דלו
האמנותי
מתבקשים
ממשהו
בנהיגה
תשחק
מאובטחת
gh
מהומות
##👍🏼
השמנה
הפלישה
אמריקן
לעובדות
גדודי
דמיוני
ברעיון
מפרטים
הביולוגי
ללידה
טלט
##בייט
##אאאאא
protect
ספרדים
למצלמה
הצמוד
לוודאי
נסיגה
לידור
ft
שמאלן
##👎🏼
המטיילים
חסין
מונט
חריפים
הבולטות
נקראה
מתוכו
והשימוש
מבואר
כמורה
ספרותית
bad
אריות
עובי
השקיפות
האיסלאמית
ההגה
עקבו
הנמוכים
החלפתי
בשתיים
##נריה
##תיך
הרגשנו
##ыт
מהנשים
כפרע
אמילי
שעשוע
##ency
ביכולתו
הסופה
הנרצחים
היריבה
צלול
וירד
הושלמה
##anotte
בשריפה
חיכו
התשס
אלקטר
האמוניה
מזיין
##מאיים
עיסא
השמאי
למילי
הבוחר
מגורי
וכמות
אביעד
הסיכום
content
פין
הפציעה
נמא
כשד
הערבות
פיננסית
buonanotte
ולספק
מלקוחות
דוכני
הברכיים
בעובדות
לגוש
ביישובים
מיקרופון
סנפ
אתונה
##שקעה
netivot
מפקח
birthday
פקידי
כחולות
מיוצרים
זקני
ישתתפו
מרפאת
מוסלמית
המשתנה
##בחרי
וסיפר
והעם
##לבד
134
בתרגיל
במינכן
חמק
להגר
הסעד
ונב
##😁😁
##יהינום
בדמי
פולימריים
sav
ועו
ערר
המוכרות
רוכבי
139
מופתעים
שלמדו
לממ
ברשותו
dm
המדענים
הכתפיים
פיתרונות
מאומה
קליטת
##عم
תאוריה
המיסוי
אננס
ורחבות
הגולה
ומוסר
האפשריות
יקי
מאפה
אלהינו
##יוז
shm
ליבם
בספרדית
מתתיהו
ich
מ1
שנלחם
הביקורות
במחש
ורצח
##חזרים
עלובים
1921
רועה
##גשג
והיכולת
האטרקציות
מעיינות
לוחצים
sat
התמודד
הבחורים
הביומטרי
לאספקת
בובספוג
caesarea
המתוכנן
קיבוצי
وق
שירביט
##ערצה
מפותח
שבמהלך
שסתומים
עצירה
סירות
ולפתח
תהל
השקיע
חחחחחחחחחחחחחחחח
שנורה
והמרכז
במדע
המרכיב
##וממים
##стру
הנפוצה
mit
המתכת
מתרחשים
הנצחה
та
נעול
מנקים
ותד
קולוני
סודיות
לענף
##דהר
בצור
בהשפעת
כנסיות
ריטמן
##כולתו
תרחיש
##כילים
הצייר
המופלאה
הוזמנו
תעני
פרסומי
רומני
התשואה
לצמיחה
והיחס
לקונס
ומוות
תמותו
##חררים
ויור
հետ
הדינ
##חזקות
##גשי
מהנת
זרקא
ממתינה
אהבנו
למידת
וכשאני
sin
במדרי
set
##חרת
##יוות
##ima
שפגשתי
דיויד
הבלם
blvd
במחקרים
שנודע
בריב
בשפתיים
מנהרה
חתונת
##נחיה
במיי
1924
ספיגה
מחומר
בהמות
הליווי
jud
##רתעה
##ונאה
##ield
לוקא
מופק
שמישהי
האשפה
סביבות
mish
שצו
##מפיינים
בתוכנה
##איפות
התקופות
הוחלף
התייצב
יסכימו
ויתרה
##גימה
לנכ
pi
שהתובע
ההגשה
מינון
לחוג
##טרט
כדאית
המפקדים
נקראו
##ייקים
שבישראל
##mp
הולכי
טרומן
יגיש
בשניות
וויט
##מוסד
##וקבים
ואיל
חזותית
##צויים
והעברת
ביטלו
בחודשי
גורר
##uch
המכונות
להתאושש
##וסטרון
כבוש
חיצוניות
##גרוף
לאכוף
בנר
הסטנדר
משרתת
מתעקשים
האבחון
לקצב
##יידית
שימושיים
בהליכים
הנצחית
התאריכים
והערכה
فلسطين
לפיהם
אורנג
למחזור
יציאות
##ייצים
גוג
הריהוט
היובל
147
המשוררת
הושפע
שלפיו
המרפאה
לאלף
באחוז
קישוט
לרגש
##גיז
נבוא
גשום
##هه
##טיפ
אמנת
ושיהיה
פרופורציות
##ופמן
ואלימות
מופז
פסיכי
לחלוקת
ובים
בימוי
##עקוע
ספונטנית
ציינתי
ופא
דרכנו
human
constr
##עיט
מרחם
הדוגמאות
הדמים
בידה
מוסבר
חאן
כעל
ספציפיות
פוסקים
ונציה
מתבטאת
ולשתף
פרשנים
שירלי
שחלפו
##פחתי
##שראות
שעוברת
ענקיות
רטובים
ליאו
205
סינת
בזבל
דעו
כעין
פשטו
והקט
הבצל
והעד
לביהמ
לנהיגה
להריץ
##רגנת
מגוף
ורצי
בגודלו
בסתיו
לבירה
גירוי
מצויינים
ולפתוח
בציוצים
ומעוד
ואיכותית
פינקל
קטר
##ליסט
זבוב
##אקס
ליזום
הנובעת
שכרגע
השהייה
##ार
בקירוב
gam
מבטו
בסכסוך
התעבורה
##tf
הבילוי
##ירויים
תלמידו
שהופכים
קרוי
לקיש
בהחלטות
טייסת
מתועשים
נשען
שהתב
לביתם
גח
לאאא
החשמלי
המזג
##מנכ
תחילתו
##عل
באיתור
המדריכים
כפיות
הסולם
בדת
קיומי
hard
חקלאים
וידוי
url
מתלהבים
אהבלה
למקלחת
התדמית
בנפאל
המאושר
##צפת
##פליקטים
131
הקמתו
##ex
בהתה
התארח
היסטוריות
cohen
תענית
מארס
פמיניסטית
התראיין
נחשפת
כיוונים
החורבן
נגמרים
ולקדם
נלקחו
studio
אממ
מכלוף
job
גלקסי
##ото
שלומדים
מהסט
הנדסי
שהופיע
זיהו
חים
לשמחה
מתפלא
bial
##שייך
הדגמה
##אייר
##kk
החיסונית
אפגניסטן
המשולש
טהרת
##🎉🎊
סינים
ביהוד
##ред
שלאח
שנדע
הטרגדיה
לעונש
הגלגלים
القدس
בקעת
יאוש
פסולה
לרווחת
שכינה
בשליחות
משטרתית
וגדלה
##يلة
אשאר
הלוו
נמדדת
שגילה
חרפה
להקפיא
לטובתו
המראות
רכישות
חליל
המדדים
באזרחות
מצבות
##קטורות
רגלים
היריב
lin
עמכם
חוטי
הוועידה
ויבא
חביות
מהאוכלוסייה
מהצי
שמבקשים
מתחרטת
בעשייה
בריאן
הענישה
שהתקבל
מתחרות
mur
שרוול
תואמת
משאב
שבתות
המקסימום
מולטימדיה
##סני
שפועלים
נוזליים
נוסיף
שמוכר
אריחים
##rate
השוטפת
##באים
פלדת
ימונה
##🆗🆗
שכיהן
prop
במפ
בייל
המאוחר
בהתק
und
##erg
##פסט
גרפיטי
הפתוחים
נציב
ביולוגי
חשמלאי
המכילה
זוא
לאכזב
להמר
תחזיק
המספקת
ניראלי
נלווים
אימהות
קורין
ולשלם
תגר
לתאגיד
פאנק
chan
התחתן
##وب
קצות
והרווחה
חופה
אישורי
למקד
1925
הבטון
הדמו
הבינוני
והוש
התפתחו
חיוניות
במורד
ותחושת
וסתם
##עול
היטל
בביתי
וטה
שפורטו
##מיניסטר
לצינורות
האנרגיות
##oney
street
##נתרים
בקרו
התקנון
הטורקית
שאהיה
##אוב
החיפ
מקלח
##ייניות
ההומני
בקמפוס
still
לאחסון
##ונקה
ליברלית
אבודים
מתגל
derekh
הנובעים
מרחמת
חצור
מהפרי
לרבע
לנשמה
ריבים
חציל
בטכנולוגיות
вс
##حة
שנפלה
טוקיו
שהתורה
התחייבויות
##онные
קיצוניות
better
למטיילים
הסלט
##ולדן
בראד
##רכאות
ולחץ
פירושה
תקינים
מחוזות
תואמים
המונופול
##יסטיים
פופולרית
##ומנית
טובבבב
טוף
שאיני
ארנה
האירוויזיון
כמאמן
במיו
אלמוני
חיובים
##קספיר
137
ציפר
הבינלאומיים
שבעוד
והעיקר
מרימים
טדי
הקבלנים
קיק
החידוש
שקמתי
אנדי
לעדכון
##300
##жи
הגברה
##סטרטגיה
בבשר
המעסיקים
שגרים
התפלל
הנעורים
מרקס
כרמית
העבריין
##порт
הרחקה
games
במדר
מצבר
הזמני
כשנת
לאמנויות
מעמידה
הופמן
##imon
שריפות
חשיבותו
הזרקת
מגדירה
חורין
להאזנה
פירש
התפטרותו
סלונים
ביין
תרשיחא
סופיה
לקוחותיה
נדרים
##رك
הטנק
להזין
הטרנס
פירעון
במחשבים
תדירות
התכונה
איסלנד
##ירופה
הזיקה
פתטי
##כזבתי
##🎉🎉🎉🎉
יוצרי
סריקות
שהגישו
וקה
אינטראקציה
האלפים
##פרדע
duration
##נציות
פרוט
בעדות
ובעלה
בערבים
מועדונים
ממוקדת
וצרפת
בהישג
холон
כשירות
תיפתח
ממייסדי
מדבריו
והחלו
בשן
שהציע
הפונה
הבני
נכדו
שאומ
בתודעה
במין
בלוטות
ניצנים
שיתאים
ומחלות
לדעתכם
ואביזרי
תקראי
##זלזל
hell
##och
##эр
באבא
##תהליך
דופקים
קאן
העסקת
בלעדיי
ומסתבר
חיון
סוכנים
אלישיב
##קטו
וחסרי
סולר
לחקות
מועבר
מעוררים
יתקבלו
מדגישה
##רונו
בנב
##פקין
מלוחות
התדר
להיגרם
הזנב
כסלו
צפיה
פאודה
סיבי
מורנו
רצועה
מתכונת
קופים
##gi
##סינה
למעגל
קיצוץ
קפיטלי
שטוענים
התייחסה
pan
##טנברג
##יוו
שמרבית
ושש
שכיף
גורמה
ובהחלט
ויהודים
##משכה
histor
##oz
מהקהל
ועבודות
ודמוקר
מוסיקלי
תבשיל
##פלקס
##שותו
בגצ
שקרנית
לאפות
מולך
الب
550
##ouch
מרינה
להיבחר
נוטל
תפאורה
המתקדמת
קורקט
במינה
##סיקות
תרבותיים
במרד
##כנעו
משימת
בקריאת
הנפשית
באילו
בריק
##מיח
מביש
הרחמים
שזי
שהנא
שיגר
##עלמת
##זבון
##😩😩😩
##та
לאיטליה
##ילדות
הנעה
שרכש
##וענת
לבטיחות
ושמונה
##וויטה
המצורף
its
לאחסן
מתחייבת
בפלייאוף
##хов
לגג
##נקש
חודשית
האשים
בחרתם
לכותרות
טופל
ירכ
בדמשק
סגולות
##מסה
לכינוי
מגוריו
##ואנלי
מינויים
טחון
שקודם
כהגדר
שדבר
הבו
תפנה
קנט
ניפר
פריסת
להבטחת
למהדרין
פקיסטן
הטראומה
ההסכמים
פוינט
הוסר
אגרה
להיכנע
דגלים
דיאנה
##ונאמי
ליאם
ועשרות
למתוח
ку
שולם
לבלוג
police
מבסוט
aud
##רחי
אפוק
לכולן
##astic
פוטנציאלי
הגפן
מנא
מתבגרים
##סקתי
הכלכליות
מרובים
סטיו
פריצות
בלעדיך
העליונים
##ria
##סיפה
חמאת
cu
נבעה
ובוכה
##מדאן
ואחיות
מאמצי
cry
comput
##oes
ממים
המגילה
במתקן
התערובת
סינו
לאמריקה
משהוא
מועלם
שטיפה
שאפ
ומוסיפים
אנוכי
אתלטיקו
לערכים
ששתי
הפסולת
הפסיכולוג
שהתקבלה
המיט
אופטימית
יתומים
יספק
מתעוררים
מאורגנים
אימוג
הגראי
ארגוב
בבדיקות
ושמן
יומא
נאותה
המליצה
bialik
##נמרק
ביולוגיה
##איג
תיאוריות
הרגולציה
קביעות
הסבה
אביבה
בריטים
אוטומטיות
##יוויון
cond
דייגו
146
ולהעלות
ווצאפ
בבטחה
ואכ
ושניהם
השוכן
הגטו
השיגה
התחממות
הגופני
נשפך
##ניכם
השור
אינעל
שרידים
ברגמן
גונב
ווטר
טענתו
לפעמיים
שוודיה
מנגו
שינ
ההיע
לשלוף
שהעביר
שצוע
לנוף
שואפת
ופיל
במחוזות
להפחיד
בהמו
לקצץ
שנקל
1914
מעברים
##рави
اليهود
שהתרחשו
במקדש
טלוויז
שפש
לעניים
פספסת
india
בגלגל
vict
הרפורמים
dir
##צון
חטאתי
האורז
המתלונן
נהרות
ההנחיות
המעצמות
השקיעו
tax
##ורדי
והאחרון
העומדות
למשטר
במעורבות
להכשרת
שיקבלו
conc
פילא
מצברים
שלעיתים
##באללה
מהגד
ניצני
הסטארט
והופכים
מנגל
בהסתדרות
זדורוב
הגיבה
##ип
בענק
להתנדב
נקשר
מראשית
were
##בודד
##מידיו
משלושת
ועקב
ובנה
ומסביר
sd
rgb
להתפשט
במהל
רטר
מאליה
יהל
cast
המחייב
garden
mom
וחלון
שהסיפור
##לש
##בם
לאא
הסדרת
ופונה
שיכורים
וחם
##مي
לאחות
בפיקודו
בעלילה
לעומתו
ממהרים
אילי
ארצו
מבינות
והתנהגות
##אספו
חורש
סטיילינג
מעברית
הסליחה
מונחת
ממחיר
שלוח
##יתוני
##anya
נקלט
שמדינת
יובש
##זבי
מפיץ
למניה
אמנה
מזרחיים
אדישים
מהמה
וסיוע
קייב
קופצת
כימית
בבניינים
שמסביר
מכיון
מכרזים
מען
ניכרים
סרגיי
ברצונך
ללקוחותיה
אלפ
##אתרים
משתדלת
לנאשם
בצוואר
##ᅳᆫ
המניין
ונאמר
var
שהכנתי
שנקבעה
מעטות
עיצובי
glass
נפס
דממה
מודאגים
מתעצבנת
פוקר
והמוד
הסבא
ובמי
אליאס
סדרתי
##פורות
ארהב
כשבי
חתנו
המחסור
מתונה
התקצי
שהתקבלו
המנורה
ron
שתומך
שהימין
##קוס
שהמקום
נישאר
תצליחו
העשויים
לאונרדו
התקרב
ושירותי
##סיכיא
מנסות
המנצ
electron
וחיס
טוס
אחס
נקלע
nm
והזמן
להתכ
סטריאו
זני
העג
##מתן
חושבות
##שתתפים
וכתוב
בלעדיהם
שמקורו
##פינות
בכינוי
יחיה
מקבץ
בקפריסין
סביון
שקב
ספוי
להשתין
הושע
version
הגישור
נדאג
לאנושות
ונשי
##קונים
פאדיחה
ולהתח
דתות
##ck
##ווני
ובהצלחה
הגט
בסדרות
##תיישב
הגלובלית
בתחרויות
מזדיין
תרזה
החרו
צמיד
ולהעניק
מונוסון
##nal
ועיקר
ברקו
סוכם
הפריט
##וטפים
בנוחות
אובססיה
אובייקטיבית
מיקה
באחרים
נגדך
##rance
סטנדרט
בולי
##פאן
##שיהו
אניח
מביבי
בp
##להם
מרשימות
להצגה
##גבלה
ילידת
קרדי
##ופח
מרפאות
הדרכת
חטאת
ששרה
מממ
מגונים
מרדף
ביקשנו
טעינה
לחיקוי
##ארז
ונורא
המפעלים
##דרן
ממוס
בהונגריה
ברעם
סימו
מודפס
##ager
לחיוב
דיוני
היפנים
transl
תרגישו
בדה
##ולנד
שאכל
מתנהגת
ושהיא
לחופ
ביסודי
אולטרה
ישימו
לאנרגיה
והצלה
##תתפים
הגלריה
##צצות
ממשלתיות
בנייני
המזוי
לאנפל
ביקורים
להתחפש
המטומטם
##ומואים
הכנ
ולבר
##חזרת
##uuuuuuuuuuuuuuuuuuuuuuuuuuuuuuuuuuuuuuuuuuuuuuuuuuuuuuuuuuuuuuuu
בשינה
הסיד
ארומה
נחלה
הרשומה
סוהר
לכיו
##בוללות
לוקס
##זקות
לאווירה
להנג
##פטון
נהיו
יבצע
להשליך
why
גרבוז
זינגר
מתווך
לבטחון
האולימפיים
תגובתו
פנור
מתמלא
lib
סקופ
לשונו
ליישב
engineers
##גשה
הרגישו
החביב
אמל
שבניגוד
ייני
כבו
##בכות
העושר
ורומ
אינטנסיבית
כיתת
פייט
##ыи
##טעין
ממדים
##בונית
טביעת
1922
שיתן
לדבריהם
להצהיר
שבנט
גלובוס
##מקו
area
נכח
##רוקו
##והנים
לסחוט
ната
להתחזק
שרן
בעליו
גורים
בפנ
לפופול
בונו
למדעים
שטבע
הנט
היצוא
הקצינים
הענקית
ההצהרה
ומרגיש
מעשיים
גנות
ויודעים
##eter
הפעוט
להסתבך
מחוייב
האנימציה
השהות
קלאסיים
дор
בסג
אינשטיין
והעבודה
בוהה
המעניק
שיאיר
כשראיתי
פנויים
לדרוך
##נעל
והשירותים
שמיני
מעיק
הנהלה
ואמרת
הקמה
להנחות
לזוגיות
says
ששית
טייק
להריח
אקטואליה
מחקה
כשלעצמו
קוקסינל
הודח
משעממים
##דמו
##פוליס
קרואטיה
היצרנים
##ych
אסביר
קנייבסקי
הלילות
##ます
שיוצאת
ונהנים
האריך
מקוה
гер
יוט
השוחד
##ציפלי
לייעץ
רוכשת
בצעדים
##יקון
האצטדיון
ולדאוג
שביעית
להפק
מערות
##פעלי
##וריא
הפגישות
וישנם
ヘフライ
##ראט
השמה
המטפלים
key
נזקק
אירעה
וזכתה
שהייתם
וקבוצות
השוטף
בגדוד
המערה
הארצות
המלחין
שהדי
##😷😷
אזהרת
##לטפורמות
מורחב
appl
האפשרית
והגיעו
נזר
מאבקים
בכפרים
יוצגו
הטבעות
לבעלה
סמלים
קאנטרי
##אונה
מטלות
שנרצחו
ודרוך
gaza
##פדת
מערוץ
מכאבים
ועובר
usd
פלו
הגס
ועידה
ליחידות
וכחלון
נפילות
סתימה
שימשיך
להפגנות
נלהב
##וותה
העצורים
פדרר
##ומפילד
למאסר
עדיפויות
מחליק
גורלו
שעובדת
רעלים
היומיומית
band
מצוק
##טטוס
products
העמדות
##חנים
##דרס
כמוכם
מהאוויר
התפילות
##זאורים
##ven
מגוש
מארבע
שזיה
באכזריות
1200
הריקודים
##צלמת
צוקרברג
לתנור
שחוזר
clean
הסתובב
אליפויות
לנזקים
めよう
##ועץ
משקפים
##דיד
רשב
מאייר
152
והצליח
made
חורג
ותוספות
פורמט
עולמם
מפריעה
חדיש
##פקס
##ניסטים
תדאגו
soldiers
נענו
הודאה
וספ
פורמלי
מהצדדים
מגברים
אינתיפאדה
חלפה
[...]
